{
  "version": "1.0",
  "truncation": null,
  "padding": null,
  "added_tokens": [
    {
      "id": 0,
      "content": "<SOS>",
      "single_word": false,
      "lstrip": false,
      "rstrip": false,
      "normalized": false,
      "special": true
    },
    {
      "id": 1,
      "content": "<EOS>",
      "single_word": false,
      "lstrip": false,
      "rstrip": false,
      "normalized": false,
      "special": true
    },
    {
      "id": 2,
      "content": "<PAD>",
      "single_word": false,
      "lstrip": false,
      "rstrip": false,
      "normalized": false,
      "special": true
    },
    {
      "id": 3,
      "content": "<UNK>",
      "single_word": false,
      "lstrip": false,
      "rstrip": false,
      "normalized": false,
      "special": true
    },
    {
      "id": 4,
      "content": "<SOU>",
      "single_word": false,
      "lstrip": false,
      "rstrip": false,
      "normalized": false,
      "special": true
    },
    {
      "id": 5,
      "content": "<EOU>",
      "single_word": false,
      "lstrip": false,
      "rstrip": false,
      "normalized": false,
      "special": true
    },
    {
      "id": 6,
      "content": "<SOA>",
      "single_word": false,
      "lstrip": false,
      "rstrip": false,
      "normalized": false,
      "special": true
    },
    {
      "id": 7,
      "content": "<EOA>",
      "single_word": false,
      "lstrip": false,
      "rstrip": false,
      "normalized": false,
      "special": true
    },
    {
      "id": 8,
      "content": "<SOT>",
      "single_word": false,
      "lstrip": false,
      "rstrip": false,
      "normalized": false,
      "special": true
    },
    {
      "id": 9,
      "content": "<EOT>",
      "single_word": false,
      "lstrip": false,
      "rstrip": false,
      "normalized": false,
      "special": true
    }
  ],
  "normalizer": null,
  "pre_tokenizer": {
    "type": "ByteLevel",
    "add_prefix_space": true,
    "trim_offsets": true,
    "use_regex": true
  },
  "post_processor": null,
  "decoder": null,
  "model": {
    "type": "BPE",
    "dropout": null,
    "unk_token": null,
    "continuing_subword_prefix": null,
    "end_of_word_suffix": null,
    "fuse_unk": false,
    "byte_fallback": false,
    "ignore_merges": false,
    "vocab": {
      "<SOS>": 0,
      "<EOS>": 1,
      "<PAD>": 2,
      "<UNK>": 3,
      "<SOU>": 4,
      "<EOU>": 5,
      "<SOA>": 6,
      "<EOA>": 7,
      "<SOT>": 8,
      "<EOT>": 9,
      "!": 10,
      "\"": 11,
      "#": 12,
      "$": 13,
      "%": 14,
      "&": 15,
      "'": 16,
      "(": 17,
      ")": 18,
      "*": 19,
      "+": 20,
      ",": 21,
      "-": 22,
      ".": 23,
      "/": 24,
      "0": 25,
      "1": 26,
      "2": 27,
      "3": 28,
      "4": 29,
      "5": 30,
      "6": 31,
      "7": 32,
      "8": 33,
      "9": 34,
      ":": 35,
      ";": 36,
      "<": 37,
      "=": 38,
      ">": 39,
      "?": 40,
      "@": 41,
      "A": 42,
      "B": 43,
      "C": 44,
      "D": 45,
      "E": 46,
      "F": 47,
      "G": 48,
      "H": 49,
      "I": 50,
      "J": 51,
      "K": 52,
      "L": 53,
      "M": 54,
      "N": 55,
      "O": 56,
      "P": 57,
      "Q": 58,
      "R": 59,
      "S": 60,
      "T": 61,
      "U": 62,
      "V": 63,
      "W": 64,
      "X": 65,
      "Y": 66,
      "Z": 67,
      "[": 68,
      "\\": 69,
      "]": 70,
      "^": 71,
      "_": 72,
      "`": 73,
      "a": 74,
      "b": 75,
      "c": 76,
      "d": 77,
      "e": 78,
      "f": 79,
      "g": 80,
      "h": 81,
      "i": 82,
      "j": 83,
      "k": 84,
      "l": 85,
      "m": 86,
      "n": 87,
      "o": 88,
      "p": 89,
      "q": 90,
      "r": 91,
      "s": 92,
      "t": 93,
      "u": 94,
      "v": 95,
      "w": 96,
      "x": 97,
      "y": 98,
      "z": 99,
      "|": 100,
      "}": 101,
      "~": 102,
      "Ċ": 103,
      "Ġ": 104,
      "Ġt": 105,
      "Ġa": 106,
      "he": 107,
      "in": 108,
      "re": 109,
      "on": 110,
      "Ġthe": 111,
      "er": 112,
      "Ġs": 113,
      "at": 114,
      "Ġo": 115,
      "en": 116,
      "Ġc": 117,
      "es": 118,
      "Ġw": 119,
      "is": 120,
      "nd": 121,
      "or": 122,
      "it": 123,
      "Ġp": 124,
      "al": 125,
      "Ġf": 126,
      "Ġb": 127,
      "ed": 128,
      "Ġof": 129,
      "an": 130,
      "ing": 131,
      "ar": 132,
      "Ġin": 133,
      "ou": 134,
      "Ġm": 135,
      "ic": 136,
      "Ġand": 137,
      "Ġto": 138,
      "Ġd": 139,
      "ion": 140,
      "ro": 141,
      "le": 142,
      "as": 143,
      "ent": 144,
      "Ġh": 145,
      "Ġth": 146,
      "ct": 147,
      "il": 148,
      "ĠT": 149,
      "Ġre": 150,
      "Ġe": 151,
      "Ġl": 152,
      "ve": 153,
      "om": 154,
      "Ġn": 155,
      "st": 156,
      "et": 157,
      "ly": 158,
      "Ġis": 159,
      "ol": 160,
      "se": 161,
      "ĠA": 162,
      "Ġg": 163,
      "id": 164,
      "ation": 165,
      "Ġbe": 166,
      "ĠS": 167,
      "ra": 168,
      "im": 169,
      "ut": 170,
      "ow": 171,
      "ch": 172,
      "ce": 173,
      "ot": 174,
      "ur": 175,
      "ĠC": 176,
      "Ġfor": 177,
      "ig": 178,
      "Ġu": 179,
      "ĠI": 180,
      "Ġon": 181,
      "Ġst": 182,
      "Ġthat": 183,
      "ĠThe": 184,
      "ver": 185,
      "ir": 186,
      "Ġy": 187,
      "ay": 188,
      "am": 189,
      "ul": 190,
      "el": 191,
      "Ġpro": 192,
      "Ġare": 193,
      "her": 194,
      "ith": 195,
      "ĠM": 196,
      "Ġas": 197,
      "ad": 198,
      "Ġan": 199,
      "Ġor": 200,
      "ĠP": 201,
      "Ġcon": 202,
      "Ġwith": 203,
      "if": 204,
      "ter": 205,
      "od": 206,
      "Ġ1": 207,
      "Ġyou": 208,
      "ge": 209,
      "Ġit": 210,
      "Ġwh": 211,
      "th": 212,
      "Ġal": 213,
      "ment": 214,
      "op": 215,
      "ate": 216,
      "Ġ(": 217,
      "ĠB": 218,
      "ts": 219,
      "Ġ-": 220,
      "ĠW": 221,
      "ill": 222,
      "ers": 223,
      "ore": 224,
      "ab": 225,
      "ies": 226,
      "ect": 227,
      "Ġde": 228,
      "ĠD": 229,
      "ĠH": 230,
      "Ġex": 231,
      "um": 232,
      "Ġhe": 233,
      "OS": 234,
      "rom": 235,
      "Ġcom": 236,
      "us": 237,
      "Ġha": 238,
      "'s": 239,
      "ess": 240,
      "os": 241,
      "ac": 242,
      "Ġat": 243,
      "ure": 244,
      "est": 245,
      "Ġby": 246,
      "ud": 247,
      "ĠE": 248,
      "Ġv": 249,
      "Ġwe": 250,
      "ist": 251,
      "ke": 252,
      "ĠF": 253,
      "ĠR": 254,
      "ity": 255,
      "ive": 256,
      "ld": 257,
      "ĠN": 258,
      "qu": 259,
      "em": 260,
      "igh": 261,
      "Ġfrom": 262,
      "Ġsu": 263,
      "Ġcan": 264,
      "Ġ\"": 265,
      "pp": 266,
      "iv": 267,
      "Ġne": 268,
      "ain": 269,
      "Ġch": 270,
      "Ġr": 271,
      "nt": 272,
      "Ġse": 273,
      "and": 274,
      "ci": 275,
      "Ġ2": 276,
      "res": 277,
      "ĠL": 278,
      "Ġwas": 279,
      "un": 280,
      "ical": 281,
      "Ġsp": 282,
      "Ġhave": 283,
      "ant": 284,
      "ĠG": 285,
      "ri": 286,
      "og": 287,
      "ort": 288,
      "Ġle": 289,
      "art": 290,
      "Ġsh": 291,
      "00": 292,
      "Ġnot": 293,
      "all": 294,
      "Ġthis": 295,
      "ĠO": 296,
      "Ġab": 297,
      "ĠU": 298,
      "rou": 299,
      "ine": 300,
      "Ġen": 301,
      "ĠIn": 302,
      "our": 303,
      "red": 304,
      "ear": 305,
      "ther": 306,
      "ions": 307,
      "Ġus": 308,
      "ap": 309,
      "ag": 310,
      "ated": 311,
      "ould": 312,
      "Ġpl": 313,
      "ost": 314,
      "du": 315,
      "oc": 316,
      "ell": 317,
      "ome": 318,
      "out": 319,
      "ight": 320,
      "ich": 321,
      "gh": 322,
      "ide": 323,
      "age": 324,
      "ard": 325,
      "Ġwor": 326,
      "Ġim": 327,
      "act": 328,
      "pl": 329,
      "ff": 330,
      "ast": 331,
      "ĠTh": 332,
      "Ġint": 333,
      "Ġ<": 334,
      "Ġwill": 335,
      "pt": 336,
      "ĠJ": 337,
      "so": 338,
      "orm": 339,
      "Ġdis": 340,
      "ans": 341,
      "ally": 342,
      "ood": 343,
      "EOS": 344,
      "SOS": 345,
      "Ġinc": 346,
      "Ġwhe": 347,
      "ru": 348,
      "per": 349,
      "Ġk": 350,
      "ak": 351,
      "ew": 352,
      "Ġcont": 353,
      "Ġmore": 354,
      "Ġtheir": 355,
      "vel": 356,
      "Ġad": 357,
      "iz": 358,
      "ater": 359,
      "Ġcomp": 360,
      "ib": 361,
      "cc": 362,
      "Ġwhich": 363,
      "Ġthey": 364,
      "Ġyour": 365,
      "ary": 366,
      "Ġres": 367,
      "ust": 368,
      "ous": 369,
      "ong": 370,
      "Ġhas": 371,
      "ations": 372,
      "ia": 373,
      "Ġall": 374,
      "ren": 375,
      "end": 376,
      "ild": 377,
      "Ġso": 378,
      "Ġcl": 379,
      "Ġdo": 380,
      "ks": 381,
      "ec": 382,
      "ĠSt": 383,
      "ase": 384,
      "ents": 385,
      "Ġother": 386,
      "ind": 387,
      "Ġstud": 388,
      "Ġper": 389,
      "ial": 390,
      "ip": 391,
      "able": 392,
      "Ġte": 393,
      "ry": 394,
      "ach": 395,
      "Ġbut": 396,
      "ep": 397,
      "Ġsa": 398,
      "Ġinf": 399,
      "ass": 400,
      "ence": 401,
      "ult": 402,
      "Ġman": 403,
      "ace": 404,
      "Ġone": 405,
      "oo": 406,
      "Ġwere": 407,
      "ake": 408,
      "Ġabout": 409,
      "ub": 410,
      "reat": 411,
      "Ġme": 412,
      "au": 413,
      "ign": 414,
      "ction": 415,
      "Ġalso": 416,
      "Ġmay": 417,
      "ice": 418,
      "ber": 419,
      "ory": 420,
      "Ġ19": 421,
      "Ġout": 422,
      "ite": 423,
      "ound": 424,
      "Ġdi": 425,
      "ord": 426,
      "are": 427,
      "Ġapp": 428,
      "Ġsy": 429,
      "Ġj": 430,
      "Ġimp": 431,
      "ress": 432,
      "ition": 433,
      "ĠThis": 434,
      "ack": 435,
      "ors": 436,
      "olog": 437,
      "one": 438,
      "ens": 439,
      "ance": 440,
      "av": 441,
      "ose": 442,
      "fe": 443,
      "ame": 444,
      "low": 445,
      "mer": 446,
      "Ġar": 447,
      "Ġtim": 448,
      "Ġun": 449,
      "Ġthan": 450,
      "Ġyear": 451,
      "ces": 452,
      "very": 453,
      "Ġev": 454,
      "ree": 455,
      "ays": 456,
      "ric": 457,
      "ang": 458,
      "Ġpre": 459,
      "ount": 460,
      "ike": 461,
      "ue": 462,
      "ish": 463,
      "Ġpe": 464,
      "Ġwho": 465,
      "ph": 466,
      "vers": 467,
      "ĠK": 468,
      "ail": 469,
      "own": 470,
      "ile": 471,
      "ates": 472,
      "Ġpart": 473,
      "Ġup": 474,
      "ĠIt": 475,
      ".<": 476,
      "Ġcol": 477,
      "lud": 478,
      "Ġbl": 479,
      "Ġqu": 480,
      "erv": 481,
      "Ġcomm": 482,
      "Ġsome": 483,
      "Ġbec": 484,
      "Ġrec": 485,
      "Ġra": 486,
      "Ġ3": 487,
      "Ġuse": 488,
      "Ġro": 489,
      "ĠV": 490,
      "pe": 491,
      "Ġinto": 492,
      "Ġnew": 493,
      "ms": 494,
      "Ġbeen": 495,
      "ĠCh": 496,
      "ople": 497,
      "Ġwhen": 498,
      "ject": 499,
      "ĠY": 500,
      "ĠUn": 501,
      "Ġthem": 502,
      "ys": 503,
      "ings": 504,
      "nder": 505,
      "ause": 506,
      "Ġits": 507,
      "te": 508,
      "lic": 509,
      "ons": 510,
      "Ġhow": 511,
      "row": 512,
      "ll": 513,
      "Ġkn": 514,
      "Ġag": 515,
      "Ġover": 516,
      "Ġsaid": 517,
      "ough": 518,
      "rough": 519,
      "Ġinclud": 520,
      "lect": 521,
      "Ġtw": 522,
      "king": 523,
      "tern": 524,
      "stem": 525,
      "irst": 526,
      "les": 527,
      "ie": 528,
      "Ġtra": 529,
      "alth": 530,
      "velop": 531,
      "Ġgen": 532,
      "rent": 533,
      "Ġthese": 534,
      "Ġtime": 535,
      "als": 536,
      "ian": 537,
      "ational": 538,
      "ple": 539,
      "Ġdif": 540,
      "Ġpeople": 541,
      ",\"": 542,
      "Ġthere": 543,
      "ove": 544,
      "ific": 545,
      "ond": 546,
      "Ġgo": 547,
      "Ġhis": 548,
      "rit": 549,
      ").": 550,
      "Ġused": 551,
      "ments": 552,
      "Ġmost": 553,
      "Ġlike": 554,
      "Ġact": 555,
      "Ġif": 556,
      "Ġbet": 557,
      "we": 558,
      "hed": 559,
      "Ġrese": 560,
      ".\"": 561,
      "Ġacc": 562,
      "Ġchild": 563,
      "ffect": 564,
      "Ġdes": 565,
      "ire": 566,
      "Ġunder": 567,
      "ool": 568,
      "Ġwould": 569,
      "Ġrep": 570,
      "'t": 571,
      "iss": 572,
      "Ġresear": 573,
      "Ġsuch": 574,
      "Ġph": 575,
      "Ġ20": 576,
      "ĠHe": 577,
      "Ġdevelop": 578,
      "Ġneed": 579,
      "Ġprov": 580,
      "Ġfirst": 581,
      "Ġsc": 582,
      "Ġhel": 583,
      "ics": 584,
      "Ġcons": 585,
      "ities": 586,
      "Ġany": 587,
      "ble": 588,
      "Ġtwo": 589,
      "ning": 590,
      "round": 591,
      "Ġsur": 592,
      "Ġprodu": 593,
      "ram": 594,
      "Ġhad": 595,
      "Ġhelp": 596,
      "ating": 597,
      "ced": 598,
      "ob": 599,
      "..": 600,
      "ook": 601,
      "ular": 602,
      "Ġfl": 603,
      "Ġob": 604,
      "ĠWh": 605,
      "Ġthrough": 606,
      "Ġfe": 607,
      "Ġrel": 608,
      "Ġsystem": 609,
      "int": 610,
      "ative": 611,
      "ormation": 612,
      "Ġtr": 613,
      "ual": 614,
      "Ġwater": 615,
      "Ġonly": 616,
      "ov": 617,
      "cess": 618,
      "Ġam": 619,
      "Ġ200": 620,
      "Ġmany": 621,
      "fter": 622,
      "uring": 623,
      "uc": 624,
      "Ġadd": 625,
      "oss": 626,
      "Ġpr": 627,
      "Ġwhat": 628,
      "ious": 629,
      "Ġwork": 630,
      "Ġpo": 631,
      "ath": 632,
      "Ġoff": 633,
      "Ġsm": 634,
      "ark": 635,
      "Ġyears": 636,
      "Ġexp": 637,
      "rib": 638,
      "Ġno": 639,
      "Ġac": 640,
      "ise": 641,
      "ures": 642,
      "ange": 643,
      "ĠAs": 644,
      "eth": 645,
      "erm": 646,
      "ased": 647,
      "Ġ4": 648,
      "Ġour": 649,
      "Ġind": 650,
      "Ġreg": 651,
      "Ġdiffe": 652,
      "ne": 653,
      "Ġspec": 654,
      "cial": 655,
      "cer": 656,
      "Ġco": 657,
      "old": 658,
      "ology": 659,
      "ten": 660,
      "oth": 661,
      "meric": 662,
      "ists": 663,
      "hen": 664,
      "ible": 665,
      "xt": 666,
      "cy": 667,
      "hes": 668,
      "ivers": 669,
      "Ġ5": 670,
      "Ġcould": 671,
      "Ġnum": 672,
      "ng": 673,
      "Ġfound": 674,
      "Ġdec": 675,
      "Ġstudy": 676,
      "Ġshould": 677,
      "ful": 678,
      "),": 679,
      "Ġinformation": 680,
      "Ġplan": 681,
      "ĠPro": 682,
      "Ġear": 683,
      "ft": 684,
      "Ġrem": 685,
      "ĠIf": 686,
      "ied": 687,
      "chn": 688,
      "Ġhigh": 689,
      "ower": 690,
      "Ġem": 691,
      "ĠAmeric": 692,
      "ata": 693,
      "ility": 694,
      "Ġinv": 695,
      "chool": 696,
      "Ġatt": 697,
      "Ġform": 698,
      "Ġ|": 699,
      "Ġexam": 700,
      "ron": 701,
      "ween": 702,
      "Ġsub": 703,
      "Ġprog": 704,
      "Ġget": 705,
      "Ġpres": 706,
      "cent": 707,
      "ife": 708,
      "ick": 709,
      "ines": 710,
      "Ġlar": 711,
      "ited": 712,
      "fore": 713,
      "Ġty": 714,
      "Ġhealth": 715,
      "land": 716,
      "ually": 717,
      "hers": 718,
      "Ġwell": 719,
      "its": 720,
      "Ġdet": 721,
      "ert": 722,
      "Ġbetween": 723,
      "ract": 724,
      "ade": 725,
      "Ġbu": 726,
      "Ġmake": 727,
      "gan": 728,
      "Ġcall": 729,
      "ins": 730,
      "Ġsci": 731,
      "ĠAl": 732,
      "iew": 733,
      "Ġmod": 734,
      "ĠRe": 735,
      "Ġsupp": 736,
      "Ġwhere": 737,
      "ĠFor": 738,
      "ily": 739,
      "ution": 740,
      "urn": 741,
      "Ġinter": 742,
      "ink": 743,
      "uch": 744,
      "Ġcar": 745,
      "ident": 746,
      "wn": 747,
      "ict": 748,
      "The": 749,
      "Ġinst": 750,
      "Ġlong": 751,
      "Ġtrans": 752,
      "ural": 753,
      "ĠWe": 754,
      "Ġmed": 755,
      "ps": 756,
      "Ġgra": 757,
      "ĠAn": 758,
      "erg": 759,
      "ds": 760,
      "Ġsim": 761,
      "Ġpub": 762,
      "ages": 763,
      "Ġpat": 764,
      "vent": 765,
      "Ġed": 766,
      "Ġafter": 767,
      "Ġeach": 768,
      "Ġ201": 769,
      "ting": 770,
      "Ġ18": 771,
      "Ġthen": 772,
      "Ġeffect": 773,
      "Ġbecause": 774,
      "ases": 775,
      "Ġvar": 776,
      "iron": 777,
      "ck": 778,
      "Ġdise": 779,
      "Ġdifferent": 780,
      "Ġloc": 781,
      "Ġvery": 782,
      "Ġincre": 783,
      "iversity": 784,
      "Ġfind": 785,
      "Ġsee": 786,
      "Ġfol": 787,
      "Ġcent": 788,
      "Ġjust": 789,
      "get": 790,
      "aw": 791,
      "ever": 792,
      "Ġimport": 793,
      "Ġchildren": 794,
      "Ġdisc": 795,
      "ically": 796,
      "Ġ--": 797,
      "Ġgener": 798,
      "orn": 799,
      "Ġknow": 800,
      "ues": 801,
      "sel": 802,
      "Ġke": 803,
      "Ġcell": 804,
      "Ġmon": 805,
      "Ġsign": 806,
      "ĠHow": 807,
      "ĠCom": 808,
      "Ġche": 809,
      "Ġhum": 810,
      "Ġdata": 811,
      "Ġher": 812,
      "ature": 813,
      "Ġresearch": 814,
      "Ġexper": 815,
      "Ġthose": 816,
      "Ġext": 817,
      "Ġ6": 818,
      "Ġproble": 819,
      "Ġstudents": 820,
      "Ġpers": 821,
      "rect": 822,
      "ars": 823,
      "tle": 824,
      "Ġsmall": 825,
      "arm": 826,
      "ros": 827,
      "ety": 828,
      "gg": 829,
      "Ġpol": 830,
      "ef": 831,
      "Ġduring": 832,
      "Ġcount": 833,
      "Ġset": 834,
      "ection": 835,
      "ruct": 836,
      "Ġtechn": 837,
      "Ġshe": 838,
      "Ġway": 839,
      "ives": 840,
      "ĠThey": 841,
      "Ġshow": 842,
      "Ġusing": 843,
      "Ġspe": 844,
      "Ġpartic": 845,
      "iel": 846,
      "Ġass": 847,
      "Ġdef": 848,
      "ex": 849,
      "Ġrequ": 850,
      "Ġlevel": 851,
      "aking": 852,
      "Ġcre": 853,
      "Ġav": 854,
      "ize": 855,
      "ĠCon": 856,
      "ĠNew": 857,
      "Ġdist": 858,
      "Ġresp": 859,
      "other": 860,
      "viron": 861,
      "Ġcur": 862,
      "Ġprocess": 863,
      "Ġmuch": 864,
      "Ġgrow": 865,
      "Ġeven": 866,
      "Ġworld": 867,
      "ody": 868,
      "Ġfollow": 869,
      "ted": 870,
      "Ġsk": 871,
      "000": 872,
      "Ġsec": 873,
      "Ġtreat": 874,
      "Ġread": 875,
      "Ġdep": 876,
      "Ġdoes": 877,
      "ĠRes": 878,
      "Ġtest": 879,
      "ale": 880,
      "Ġfood": 881,
      "ĠBut": 882,
      "Ġprovid": 883,
      "ĠUniversity": 884,
      "Ġlear": 885,
      "read": 886,
      "form": 887,
      "Ġexpl": 888,
      "Ġaut": 889,
      "Ġris": 890,
      "rol": 891,
      "Ġfam": 892,
      "Ġgrou": 893,
      "Ġca": 894,
      "ute": 895,
      "io": 896,
      "Ġsame": 897,
      "ork": 898,
      "Ġback": 899,
      "Ġnumber": 900,
      "Ġfact": 901,
      "oy": 902,
      "ĠYou": 903,
      "ved": 904,
      "ĠSp": 905,
      "Ġent": 906,
      "ix": 907,
      "Ġevery": 908,
      "Ġocc": 909,
      "ized": 910,
      "Ġfun": 911,
      "vironment": 912,
      "ness": 913,
      "Ġimportant": 914,
      "rain": 915,
      "Ġschool": 916,
      "oun": 917,
      "Ġ10": 918,
      "led": 919,
      "ather": 920,
      "Ġbefore": 921,
      "cept": 922,
      "Ġbeing": 923,
      "ished": 924,
      "ĠAr": 925,
      "ergy": 926,
      "Ġhist": 927,
      "Ġless": 928,
      "con": 929,
      "Ġcomple": 930,
      "Ġpop": 931,
      "Ġlead": 932,
      "Ġart": 933,
      "und": 934,
      "Ġmade": 935,
      "ices": 936,
      "ĠThere": 937,
      "Ġstate": 938,
      "ock": 939,
      "Ġmin": 940,
      "ran": 941,
      "Ġend": 942,
      "rop": 943,
      "Ġcommun": 944,
      "Ġ'": 945,
      "Ġgl": 946,
      "Ġdisease": 947,
      "Ġpar": 948,
      "omen": 949,
      "Ġstr": 950,
      "Ġins": 951,
      "Ġthree": 952,
      "ward": 953,
      "ax": 954,
      "ism": 955,
      "gen": 956,
      "ger": 957,
      "Ġdown": 958,
      "Ġboth": 959,
      "com": 960,
      "any": 961,
      "Ġcalled": 962,
      "Ġsol": 963,
      "Ġval": 964,
      "akes": 965,
      "Ġlife": 966,
      "Ġclass": 967,
      "inal": 968,
      "Ġpercent": 969,
      "ere": 970,
      "imate": 971,
      "Ġnow": 972,
      "ient": 973,
      "Ġoften": 974,
      "Ġblood": 975,
      "day": 976,
      "ral": 977,
      "Ġcommon": 978,
      "Ġvis": 979,
      "ains": 980,
      "Ġ7": 981,
      "Ġprot": 982,
      "ults": 983,
      "iver": 984,
      "Ġdesign": 985,
      "Ġsays": 986,
      "Ġelect": 987,
      "Ġmem": 988,
      "reen": 989,
      "ty": 990,
      "ĠSo": 991,
      "Ġactiv": 992,
      "Ġown": 993,
      "ince": 994,
      "ĠSe": 995,
      "Ġlarge": 996,
      "vern": 997,
      "Ġposs": 998,
      "aterial": 999,
      "ters": 1000,
      "Ġaround": 1001,
      "stand": 1002,
      "chers": 1003,
      "Ġ8": 1004,
      "Ġser": 1005,
      "Ġcond": 1006,
      "air": 1007,
      "Ġincluding": 1008,
      "agn": 1009,
      "oh": 1010,
      "Ġchar": 1011,
      "Ġexample": 1012,
      "acter": 1013,
      "iqu": 1014,
      "ulation": 1015,
      "Ġref": 1016,
      "Ġday": 1017,
      "Ġtake": 1018,
      "ash": 1019,
      "ier": 1020,
      "Ġgood": 1021,
      "ets": 1022,
      "ined": 1023,
      "oms": 1024,
      "Ġbody": 1025,
      "Ġscient": 1026,
      "ĠWhat": 1027,
      "ources": 1028,
      "outh": 1029,
      "Ġprogram": 1030,
      "Ġperson": 1031,
      "Ġland": 1032,
      "ull": 1033,
      "Ġhand": 1034,
      "up": 1035,
      "ĠTo": 1036,
      "ĠInd": 1037,
      "Ġwhile": 1038,
      "raph": 1039,
      "||": 1040,
      "ton": 1041,
      "Ġcaus": 1042,
      "Ġlit": 1043,
      "Ġtoo": 1044,
      "ants": 1045,
      "itions": 1046,
      "ĠThese": 1047,
      "illion": 1048,
      "der": 1049,
      "Ġredu": 1050,
      "ĠAmerican": 1051,
      "ury": 1052,
      "__": 1053,
      "Ġest": 1054,
      "soci": 1055,
      "ring": 1056,
      "ivid": 1057,
      "Ġknown": 1058,
      "Ġorgan": 1059,
      "ĠNational": 1060,
      "Ġreport": 1061,
      "ource": 1062,
      "ĠEx": 1063,
      "Ġmy": 1064,
      "ected": 1065,
      "Ġserv": 1066,
      "Ġmain": 1067,
      "Ġcap": 1068,
      "Ġret": 1069,
      "Ġarea": 1070,
      "ids": 1071,
      "ouse": 1072,
      "ĠWhen": 1073,
      "iving": 1074,
      "hip": 1075,
      "Ġmaterial": 1076,
      "ĠPh": 1077,
      "Ġmet": 1078,
      "Ġinclude": 1079,
      "Ġcare": 1080,
      "ium": 1081,
      "Ġallow": 1082,
      "cl": 1083,
      "Ġ9": 1084,
      "ital": 1085,
      "orth": 1086,
      "aj": 1087,
      "Ġdirect": 1088,
      "way": 1089,
      "Ġquest": 1090,
      "Ġpower": 1091,
      "ving": 1092,
      "ield": 1093,
      "Ġhuman": 1094,
      "Ġdr": 1095,
      "ave": 1096,
      "Ġequ": 1097,
      "Ġpublic": 1098,
      "ven": 1099,
      "ĠOn": 1100,
      "Ġspecies": 1101,
      "Ġchang": 1102,
      "Ġair": 1103,
      "ĠAd": 1104,
      "ross": 1105,
      "Ġlight": 1106,
      "Ġagain": 1107,
      "Ġrisk": 1108,
      "Ġbre": 1109,
      "Ġbo": 1110,
      "bers": 1111,
      "Ġproject": 1112,
      "line": 1113,
      "Ġtyp": 1114,
      "uss": 1115,
      "ĠAnd": 1116,
      "Ġcor": 1117,
      "ĠCol": 1118,
      "Ġanim": 1119,
      "Ġ199": 1120,
      "ĠCent": 1121,
      "Ġsym": 1122,
      "Ġphys": 1123,
      "de": 1124,
      "mon": 1125,
      "ĠDe": 1126,
      "ves": 1127,
      "Ġmust": 1128,
      "osed": 1129,
      "ared": 1130,
      "ah": 1131,
      "Ġstand": 1132,
      "els": 1133,
      "Ġmeas": 1134,
      "Ġve": 1135,
      "Ġcontin": 1136,
      "bs": 1137,
      "ĠSci": 1138,
      "Ġcle": 1139,
      "Ġenvironment": 1140,
      "Ġfew": 1141,
      "rence": 1142,
      "Ġcour": 1143,
      "Ġop": 1144,
      "Ġmeth": 1145,
      "ĠAt": 1146,
      "Ġoccur": 1147,
      "Ġmat": 1148,
      "orts": 1149,
      "stit": 1150,
      "ality": 1151,
      "Ġavail": 1152,
      "eral": 1153,
      "osp": 1154,
      "Ġbuild": 1155,
      "Ġbel": 1156,
      "arch": 1157,
      "ĠEng": 1158,
      "ired": 1159,
      "Ġcancer": 1160,
      "ording": 1161,
      "Ġvari": 1162,
      "omet": 1163,
      "ional": 1164,
      "ering": 1165,
      ".,": 1166,
      "Ġnear": 1167,
      "Ġdid": 1168,
      "lished": 1169,
      "iod": 1170,
      "Ġstart": 1171,
      "gin": 1172,
      "Ġenergy": 1173,
      "Ġunderstand": 1174,
      "Ġcells": 1175,
      "Ġsl": 1176,
      "...": 1177,
      "ĠCl": 1178,
      "iven": 1179,
      "ator": 1180,
      "Ġstill": 1181,
      "Ġeas": 1182,
      "Ġbeh": 1183,
      "fess": 1184,
      "view": 1185,
      "Ġdon": 1186,
      "ĠUnited": 1187,
      "Ġadv": 1188,
      "ĠIs": 1189,
      "ograph": 1190,
      "ission": 1191,
      "Ġmight": 1192,
      "Ġident": 1193,
      "SA": 1194,
      "Ġeduc": 1195,
      "here": 1196,
      "ĠEar": 1197,
      "Ġappro": 1198,
      "Ġtem": 1199,
      "Ġresult": 1200,
      "Ġpresent": 1201,
      "Ġcause": 1202,
      "ĠSh": 1203,
      "rodu": 1204,
      "Ġtre": 1205,
      "ior": 1206,
      "man": 1207,
      "Ġchange": 1208,
      "ĠPl": 1209,
      "Ġgu": 1210,
      "ites": 1211,
      "ified": 1212,
      "ination": 1213,
      "ption": 1214,
      "Ġpot": 1215,
      "eng": 1216,
      "Ġresearchers": 1217,
      "iles": 1218,
      "Ġearly": 1219,
      "Ġplant": 1220,
      "Ġsever": 1221,
      "Ġcomput": 1222,
      "Ġwomen": 1223,
      "Ġavailable": 1224,
      "ats": 1225,
      "Ġwrit": 1226,
      "ĠTe": 1227,
      "ify": 1228,
      "Ġthough": 1229,
      "ww": 1230,
      "ients": 1231,
      "Ġcontrol": 1232,
      "me": 1233,
      "Ġgreat": 1234,
      "ration": 1235,
      "ĠMed": 1236,
      "Ġeng": 1237,
      "Ġhy": 1238,
      "Ġiss": 1239,
      "Ġright": 1240,
      "Ġgovern": 1241,
      "ries": 1242,
      "Ġlow": 1243,
      "Ġplace": 1244,
      "Ġbas": 1245,
      "Ġsupport": 1246,
      "Ġcurrent": 1247,
      "ffic": 1248,
      "Ġdevelopment": 1249,
      "Ġconf": 1250,
      "Ġobject": 1251,
      "Ġwithin": 1252,
      "Ġwant": 1253,
      "tain": 1254,
      "ason": 1255,
      "Ġimm": 1256,
      "ajor": 1257,
      "Ġpass": 1258,
      "lish": 1259,
      "Ġtop": 1260,
      "Ġanother": 1261,
      "Ġdesc": 1262,
      "Ġspace": 1263,
      "ĠStates": 1264,
      "Ġbir": 1265,
      "ences": 1266,
      "Ġmethod": 1267,
      "Ġoper": 1268,
      "Ġold": 1269,
      "Ġant": 1270,
      "Ġgroup": 1271,
      "Ġlast": 1272,
      "Ġrad": 1273,
      "atural": 1274,
      "ĠEn": 1275,
      "ological": 1276,
      "Ġsecond": 1277,
      "ime": 1278,
      "ards": 1279,
      "angu": 1280,
      "ole": 1281,
      "Ġlook": 1282,
      "Ġ&": 1283,
      "Ġbi": 1284,
      "Ġlearn": 1285,
      "ĠCan": 1286,
      "face": 1287,
      "ived": 1288,
      "ered": 1289,
      "ests": 1290,
      "Ġareas": 1291,
      "Ġseveral": 1292,
      "erest": 1293,
      "Ġwee": 1294,
      "abor": 1295,
      "Ġplay": 1296,
      "ential": 1297,
      "Ġsay": 1298,
      "itive": 1299,
      "Ġimpro": 1300,
      "Ġprovide": 1301,
      "ization": 1302,
      "ote": 1303,
      "ights": 1304,
      "Ġhistory": 1305,
      "atory": 1306,
      "Ġ$": 1307,
      "ots": 1308,
      "ug": 1309,
      "ision": 1310,
      "Ġtreatment": 1311,
      "Ġproduct": 1312,
      "ency": 1313,
      "Ġhere": 1314,
      "Ġtype": 1315,
      "Ġanal": 1316,
      "ense": 1317,
      "ccess": 1318,
      "Ġmus": 1319,
      "the": 1320,
      "--": 1321,
      "Ġwithout": 1322,
      "ĠDr": 1323,
      "Ġpract": 1324,
      "ides": 1325,
      "pr": 1326,
      "Ġele": 1327,
      "Ġpain": 1328,
      "Ġfore": 1329,
      "Ġpur": 1330,
      "Ġcal": 1331,
      "ner": 1332,
      "Ġprevent": 1333,
      "Ġproblems": 1334,
      "ĠBe": 1335,
      "conom": 1336,
      "ĠQ": 1337,
      "Ġindivid": 1338,
      "Ġhome": 1339,
      "Ġlist": 1340,
      "Ġmajor": 1341,
      "Ġdev": 1342,
      "Ġpoint": 1343,
      "Ġfollowing": 1344,
      "ope": 1345,
      "atic": 1346,
      "Ġ12": 1347,
      "Ġ[": 1348,
      "hor": 1349,
      "ently": 1350,
      "Ġfour": 1351,
      "Ġaddition": 1352,
      "ĠLe": 1353,
      "ode": 1354,
      "Ġaffect": 1355,
      "cing": 1356,
      "ĠResear": 1357,
      "Ġ15": 1358,
      "Ġrun": 1359,
      "Ġpossible": 1360,
      "Ġide": 1361,
      "less": 1362,
      "ĠHowever": 1363,
      "Ġmonth": 1364,
      "Ġhead": 1365,
      "etic": 1366,
      "Ġ0": 1367,
      "icle": 1368,
      "par": 1369,
      "Ġflow": 1370,
      "Ġinvol": 1371,
      "Ġrest": 1372,
      "Ġwar": 1373,
      "oid": 1374,
      "self": 1375,
      "Ġhim": 1376,
      "ills": 1377,
      "cle": 1378,
      "Ġproper": 1379,
      "19": 1380,
      "ctor": 1381,
      "Ġbetter": 1382,
      "Ġheart": 1383,
      "Ġconst": 1384,
      "Ġmove": 1385,
      "Ġunt": 1386,
      "'re": 1387,
      "ining": 1388,
      "Ġinterest": 1389,
      "tt": 1390,
      "ples": 1391,
      "Ġlevels": 1392,
      "ns": 1393,
      "une": 1394,
      "Ġfamily": 1395,
      "ians": 1396,
      "Ġbecome": 1397,
      "Ġmar": 1398,
      "Ġben": 1399,
      "Ġkeep": 1400,
      "ox": 1401,
      "Ġhig": 1402,
      "Ġage": 1403,
      "Ġorig": 1404,
      "Ġvir": 1405,
      "Ġmillion": 1406,
      "Ġname": 1407,
      "Ġperform": 1408,
      "ames": 1409,
      "rug": 1410,
      "ĠAll": 1411,
      "Ġsw": 1412,
      "Ġexperi": 1413,
      "ĠOr": 1414,
      "amp": 1415,
      "ina": 1416,
      "ability": 1417,
      "Ġpos": 1418,
      "ĠEarth": 1419,
      "Ġtimes": 1420,
      "Ġopen": 1421,
      "Ġpress": 1422,
      "Ġsugg": 1423,
      "Ġusually": 1424,
      "Ġes": 1425,
      "Ġdeterm": 1426,
      "aper": 1427,
      "Ġresults": 1428,
      "Ġperiod": 1429,
      "uro": 1430,
      "Ġcert": 1431,
      "Ġvol": 1432,
      "Ġbest": 1433,
      "Ġview": 1434,
      "ĠSome": 1435,
      "mit": 1436,
      "Ġproblem": 1437,
      "use": 1438,
      "rap": 1439,
      "Ġleg": 1440,
      "Ġable": 1441,
      "ptoms": 1442,
      "20": 1443,
      "Ġnon": 1444,
      "erc": 1445,
      "Ġsite": 1446,
      "ilar": 1447,
      "oad": 1448,
      "Ġbelie": 1449,
      "Ġsince": 1450,
      "Ġchem": 1451,
      "ĠHealth": 1452,
      "hem": 1453,
      "Ġparticular": 1454,
      "Ġcolle": 1455,
      "ental": 1456,
      "ern": 1457,
      "Ġmen": 1458,
      "Ġlim": 1459,
      "ĠWor": 1460,
      "Ġplants": 1461,
      "ended": 1462,
      "az": 1463,
      "ret": 1464,
      "Ġassoci": 1465,
      "ways": 1466,
      "Ġfunction": 1467,
      "Ġrele": 1468,
      "Ġappear": 1469,
      "ones": 1470,
      "Ġrece": 1471,
      "ĠStud": 1472,
      "Ġlangu": 1473,
      "Ġbrain": 1474,
      "aren": 1475,
      "though": 1476,
      "Ġlikely": 1477,
      "ories": 1478,
      "idence": 1479,
      "Ġdiff": 1480,
      "Ġbased": 1481,
      "lu": 1482,
      "10": 1483,
      "ĠCal": 1484,
      "Ġstruct": 1485,
      "Ġcontain": 1486,
      "Ġrecord": 1487,
      "to": 1488,
      "Ġmark": 1489,
      "Ġthink": 1490,
      "ends": 1491,
      "ling": 1492,
      "Ġamong": 1493,
      "ooks": 1494,
      "Ġel": 1495,
      "Ġtri": 1496,
      "Ġhard": 1497,
      "min": 1498,
      "imes": 1499,
      "put": 1500,
      "ĠSy": 1501,
      "ormal": 1502,
      "Ġteam": 1503,
      "Ġobs": 1504,
      "Ġcost": 1505,
      "rid": 1506,
      "Ġter": 1507,
      "Ġfre": 1508,
      "Ġmedic": 1509,
      "Ġgovernment": 1510,
      "Ġbook": 1511,
      "Ġuntil": 1512,
      "ably": 1513,
      "Ġpatients": 1514,
      "Ġmeans": 1515,
      "Ġorder": 1516,
      "aps": 1517,
      "Ġalong": 1518,
      "Ġlet": 1519,
      "Ġmult": 1520,
      "ĠOne": 1521,
      "Ġyoung": 1522,
      "Ġdays": 1523,
      "Ġfac": 1524,
      "Ġaccess": 1525,
      "be": 1526,
      "ider": 1527,
      "Ġopp": 1528,
      "Ġreal": 1529,
      "ape": 1530,
      "Ġ17": 1531,
      "ware": 1532,
      "Ġmeasure": 1533,
      "Ġdam": 1534,
      "Ġsignific": 1535,
      "Ġcult": 1536,
      "nal": 1537,
      "acc": 1538,
      "Ġlocal": 1539,
      "cially": 1540,
      "Ġindu": 1541,
      "Ġagainst": 1542,
      "Ġfree": 1543,
      "Ġnatural": 1544,
      "Ġput": 1545,
      "Ġfar": 1546,
      "Ġapplic": 1547,
      "Ġmean": 1548,
      "ray": 1549,
      "Ġline": 1550,
      "Ġsystems": 1551,
      "ĠSc": 1552,
      "Ġeconom": 1553,
      "omm": 1554,
      "aken": 1555,
      "ibr": 1556,
      "ĠDep": 1557,
      "Ġcir": 1558,
      "Ġprofess": 1559,
      "Ġlittle": 1560,
      "vious": 1561,
      "olution": 1562,
      "ik": 1563,
      "Ġchanges": 1564,
      "artment": 1565,
      "aves": 1566,
      "Ġbro": 1567,
      "ored": 1568,
      "pect": 1569,
      "Ġflu": 1570,
      "ĠNe": 1571,
      "port": 1572,
      "Ġshort": 1573,
      "Th": 1574,
      "ĠZ": 1575,
      "ators": 1576,
      "rams": 1577,
      "Ġcomb": 1578,
      "Ġgiven": 1579,
      "Ġhapp": 1580,
      "Ġnext": 1581,
      "ĠAf": 1582,
      "Ġscientists": 1583,
      "ither": 1584,
      "Ġ=": 1585,
      "ĠGe": 1586,
      "ank": 1587,
      "ateg": 1588,
      "Ġsymptoms": 1589,
      "sw": 1590,
      "Ġlaw": 1591,
      "Ġsurface": 1592,
      "Ġside": 1593,
      "Ġturn": 1594,
      "Ġer": 1595,
      "Ġill": 1596,
      "Ġwind": 1597,
      "Ġey": 1598,
      "Ġpast": 1599,
      "dition": 1600,
      "itor": 1601,
      "ised": 1602,
      "iness": 1603,
      "Ġdra": 1604,
      "work": 1605,
      "Ġdrug": 1606,
      "NA": 1607,
      "ĠCenter": 1608,
      "sc": 1609,
      "Ġrepres": 1610,
      "ĠNA": 1611,
      "yl": 1612,
      "Ġscience": 1613,
      "Ġmov": 1614,
      "Ġsimilar": 1615,
      "Ġ.": 1616,
      "Ġspecial": 1617,
      "Ġdel": 1618,
      "ĠBl": 1619,
      "Ġothers": 1620,
      "Ġstudies": 1621,
      "Ġtemper": 1622,
      "Ġdeath": 1623,
      "Ġcertain": 1624,
      "atch": 1625,
      "Ġpost": 1626,
      "ane": 1627,
      "alk": 1628,
      "Ġsoil": 1629,
      "Ġconditions": 1630,
      "Ġspecific": 1631,
      "Ġsing": 1632,
      "Ġtext": 1633,
      "Ġlater": 1634,
      "ĠJoh": 1635,
      "alf": 1636,
      "ĠNorth": 1637,
      "ĠThat": 1638,
      "Ġcourse": 1639,
      "ĠBy": 1640,
      "ead": 1641,
      "sy": 1642,
      "ogn": 1643,
      "urther": 1644,
      "Ġcreate": 1645,
      "ocus": 1646,
      "Ġbenef": 1647,
      "Ġcome": 1648,
      "ales": 1649,
      "ately": 1650,
      "icult": 1651,
      "over": 1652,
      "Ġcase": 1653,
      "ĠWith": 1654,
      "Ġeffects": 1655,
      "Ġenc": 1656,
      "Ġconn": 1657,
      "Ġpopulation": 1658,
      "Ġthings": 1659,
      "Ġfin": 1660,
      "ĠCar": 1661,
      "Ġphot": 1662,
      "osis": 1663,
      "ĠGen": 1664,
      "Ġincrease": 1665,
      "ĠResearch": 1666,
      "ribut": 1667,
      "ocu": 1668,
      "ae": 1669,
      "rist": 1670,
      "ours": 1671,
      "ometh": 1672,
      "ĠAb": 1673,
      "app": 1674,
      "Ġsuccess": 1675,
      "cul": 1676,
      "Ġleast": 1677,
      "Ġground": 1678,
      "ression": 1679,
      "ĠIntern": 1680,
      "ances": 1681,
      "Ġred": 1682,
      "overed": 1683,
      "Ġmot": 1684,
      "Ġcomputer": 1685,
      "omething": 1686,
      "Ġsignificant": 1687,
      "//": 1688,
      "ĠUS": 1689,
      "Ġcreat": 1690,
      "Ġleft": 1691,
      "Ġabove": 1692,
      "ley": 1693,
      "agement": 1694,
      "urope": 1695,
      "let": 1696,
      "amm": 1697,
      "Ġtechnology": 1698,
      "ler": 1699,
      "ĠInstit": 1700,
      "right": 1701,
      "isc": 1702,
      "Ġbehav": 1703,
      "aster": 1704,
      "ged": 1705,
      "oph": 1706,
      "Ġimpact": 1707,
      "ention": 1708,
      "ches": 1709,
      "atures": 1710,
      "Ġdeveloped": 1711,
      "Ġhigher": 1712,
      "Ġsize": 1713,
      "Ġkey": 1714,
      "ĠIm": 1715,
      "Ġbegin": 1716,
      "ems": 1717,
      "Ġcountry": 1718,
      "ending": 1719,
      "Ġsocial": 1720,
      "ĠX": 1721,
      "Ġcr": 1722,
      "Ġtry": 1723,
      "uture": 1724,
      "iting": 1725,
      "Ġdescrib": 1726,
      "Ġfield": 1727,
      "Ġ16": 1728,
      "Ġbus": 1729,
      "ĠAfric": 1730,
      "Ġmaking": 1731,
      "Ġenough": 1732,
      "Ġacross": 1733,
      "Ġwords": 1734,
      "Ġpage": 1735,
      "Ġcharacter": 1736,
      "Ġ30": 1737,
      "oint": 1738,
      "Ġast": 1739,
      "bon": 1740,
      "Ġtypes": 1741,
      "Ġaccording": 1742,
      "12": 1743,
      "Ġteac": 1744,
      "ned": 1745,
      "ilt": 1746,
      "oot": 1747,
      "Ġcomplete": 1748,
      "ember": 1749,
      "idd": 1750,
      "oon": 1751,
      "ĠWar": 1752,
      "Ġlower": 1753,
      "Ġtool": 1754,
      "ĠScience": 1755,
      "Ġtoday": 1756,
      "Ġpred": 1757,
      "edi": 1758,
      "ER": 1759,
      "ĠEurope": 1760,
      "Ġinvest": 1761,
      "Ġprim": 1762,
      "af": 1763,
      "ĠState": 1764,
      "Ġmic": 1765,
      "Ġintern": 1766,
      "obal": 1767,
      "Ġplac": 1768,
      "Ġauthor": 1769,
      "Ġsum": 1770,
      "Ġfull": 1771,
      "Ġaway": 1772,
      "pos": 1773,
      "50": 1774,
      "ournal": 1775,
      "Ġcommunity": 1776,
      "ĠMore": 1777,
      "Ġindic": 1778,
      "Ġz": 1779,
      "Ġwhether": 1780,
      "ont": 1781,
      "Ġtru": 1782,
      "Ġtoget": 1783,
      "Ġdiscuss": 1784,
      "Ġindust": 1785,
      "Ġtogether": 1786,
      "Ġsomething": 1787,
      "Ġpublished": 1788,
      "por": 1789,
      "ison": 1790,
      "Ġfocus": 1791,
      "Ġcases": 1792,
      "ipp": 1793,
      "ream": 1794,
      "ĠCont": 1795,
      "Ġprom": 1796,
      "Ġworks": 1797,
      "ruction": 1798,
      "Ġmedical": 1799,
      "eds": 1800,
      "ĠWorld": 1801,
      "Ġlanguage": 1802,
      "ott": 1803,
      "Ġengine": 1804,
      "Ġfish": 1805,
      "Ġgre": 1806,
      "ublic": 1807,
      "ĠBrit": 1808,
      "ortun": 1809,
      "pecially": 1810,
      "ference": 1811,
      "Ġactivity": 1812,
      "Ġgive": 1813,
      "plic": 1814,
      "Ġnet": 1815,
      "Ġrequire": 1816,
      "Ġanimals": 1817,
      "Ġdeg": 1818,
      "Ġgas": 1819,
      "://": 1820,
      "Ġdue": 1821,
      "Ġfive": 1822,
      "ery": 1823,
      "Ġresources": 1824,
      "most": 1825,
      "not": 1826,
      "Ġeducation": 1827,
      "lement": 1828,
      "ttp": 1829,
      "ilities": 1830,
      "ands": 1831,
      "duct": 1832,
      "Ġ11": 1833,
      "ique": 1834,
      "Ġamount": 1835,
      "Ġprotect": 1836,
      "Ġlearning": 1837,
      "ush": 1838,
      "Ġbelow": 1839,
      "ung": 1840,
      "Ġeffective": 1841,
      "Ġet": 1842,
      "Ġdifficult": 1843,
      "verage": 1844,
      "Ġsent": 1845,
      "Ġsource": 1846,
      "Ġsens": 1847,
      "Ġwhite": 1848,
      "Ġpaper": 1849,
      "We": 1850,
      "eg": 1851,
      "ploy": 1852,
      "Ġblack": 1853,
      "ires": 1854,
      "org": 1855,
      "omes": 1856,
      "ables": 1857,
      "Ġwhy": 1858,
      "Ġgeneral": 1859,
      "aut": 1860,
      "Ġconsum": 1861,
      "ĠAfter": 1862,
      "Ġrange": 1863,
      "Ġprob": 1864,
      "Ġworking": 1865,
      "Ġsam": 1866,
      "Ġprovides": 1867,
      "asing": 1868,
      "Ġbig": 1869,
      "Ġfuture": 1870,
      "Ġge": 1871,
      "ially": 1872,
      "Ġreturn": 1873,
      "ĠSouth": 1874,
      "ints": 1875,
      "Ġmil": 1876,
      "Ġstrong": 1877,
      "Ġclear": 1878,
      "Ġquestions": 1879,
      "Ġfeel": 1880,
      "Ġseen": 1881,
      "Ġvalue": 1882,
      "Ġsuggest": 1883,
      "ĠMay": 1884,
      "Ġpressure": 1885,
      "Ġcollect": 1886,
      "ips": 1887,
      "Ġfall": 1888,
      "Ġexist": 1889,
      "ows": 1890,
      "inter": 1891,
      "Ġkind": 1892,
      "Ġmass": 1893,
      "Ġgoing": 1894,
      "opy": 1895,
      "ysis": 1896,
      "Ġskin": 1897,
      "ĠAmerica": 1898,
      "rate": 1899,
      "Ġimprove": 1900,
      "Ġcentury": 1901,
      "Ġur": 1902,
      "by": 1903,
      "eding": 1904,
      "ĠHist": 1905,
      "Ġclose": 1906,
      "Ġann": 1907,
      "Ġdone": 1908,
      "unt": 1909,
      "ĠEnglish": 1910,
      "ĠInf": 1911,
      "Ġstep": 1912,
      "ĠFl": 1913,
      "Ġsn": 1914,
      "Ġchemical": 1915,
      "of": 1916,
      "mber": 1917,
      "Ġeff": 1918,
      "Ġweek": 1919,
      "Ġdiagn": 1920,
      "ĠCalif": 1921,
      "ird": 1922,
      "Ġactivities": 1923,
      "Ġsingle": 1924,
      "Ġways": 1925,
      "Ġterm": 1926,
      "Ġmodel": 1927,
      "ĠNASA": 1928,
      "aching": 1929,
      "Ġestab": 1930,
      "ĠSchool": 1931,
      "Ġsure": 1932,
      "Ġespecially": 1933,
      "Ġcut": 1934,
      "Ġquestion": 1935,
      "Ġfund": 1936,
      "Ġeither": 1937,
      "Ġdocu": 1938,
      "Ġhowever": 1939,
      "Ġimage": 1940,
      "ervation": 1941,
      "Ġphysical": 1942,
      "ciety": 1943,
      "esc": 1944,
      "Ġrespons": 1945,
      "Ġ>": 1946,
      "ĠDo": 1947,
      "Ġsit": 1948,
      "Ġgroups": 1949,
      "ĠMan": 1950,
      "Ġrecomm": 1951,
      "Ġconcer": 1952,
      "arents": 1953,
      "Ġlive": 1954,
      "Ġmaterials": 1955,
      "iation": 1956,
      "Ġvarious": 1957,
      "ges": 1958,
      "ĠMar": 1959,
      "Ġgrowth": 1960,
      "ok": 1961,
      "Ġtaken": 1962,
      "Ġdetail": 1963,
      "ĠPre": 1964,
      "Ġrepresent": 1965,
      "Ġgr": 1966,
      "Ġopt": 1967,
      "Ġoffic": 1968,
      "ĠDepartment": 1969,
      "Ġrate": 1970,
      "ready": 1971,
      "roll": 1972,
      "Ġloss": 1973,
      "ĠCount": 1974,
      "ounds": 1975,
      "Ġcy": 1976,
      "Ġrelated": 1977,
      "like": 1978,
      "Ġneeds": 1979,
      "ometimes": 1980,
      "ask": 1981,
      "inking": 1982,
      "ured": 1983,
      "amin": 1984,
      "Ġansw": 1985,
      "Ġevent": 1986,
      "side": 1987,
      "sp": 1988,
      "Ġcrit": 1989,
      "Ġhaving": 1990,
      "Ġ198": 1991,
      "Ġcolor": 1992,
      "Ġcountries": 1993,
      "Ġword": 1994,
      ".)": 1995,
      "abet": 1996,
      "Ġwr": 1997,
      "ym": 1998,
      "Ġreally": 1999,
      "Ġnecess": 2000,
      "Ġalways": 2001,
      "ule": 2002,
      "ledge": 2003,
      "ĠPr": 2004,
      "Ġfurther": 2005,
      "Ġnut": 2006,
      "ĠAust": 2007,
      "Ġ14": 2008,
      "ĠWhile": 2009,
      "abit": 2010,
      "Ġsun": 2011,
      "Ġassociated": 2012,
      "ĠInstitute": 2013,
      "Ġparticip": 2014,
      "Ġproduction": 2015,
      "Ġfrequ": 2016,
      "ĠShe": 2017,
      "Ġlink": 2018,
      "ĠGo": 2019,
      "fer": 2020,
      "Ġreduce": 2021,
      "Ġwide": 2022,
      "Ġmakes": 2023,
      "ores": 2024,
      "Ġcreated": 2025,
      "Ġvers": 2026,
      "eter": 2027,
      "Ġpotential": 2028,
      "eb": 2029,
      "Ġaddress": 2030,
      "Ġlay": 2031,
      "rel": 2032,
      "aring": 2033,
      "Ġremain": 2034,
      "elf": 2035,
      "Ġneeded": 2036,
      "11": 2037,
      "Ġfat": 2038,
      "Ġalready": 2039,
      "Ġtell": 2040,
      "Ġclimate": 2041,
      "Ġshows": 2042,
      "ĠComm": 2043,
      "Ġnever": 2044,
      "Ġarticle": 2045,
      "Ġ100": 2046,
      "Ġbat": 2047,
      "Ġcat": 2048,
      "Ġhalf": 2049,
      "oll": 2050,
      "Ġprote": 2051,
      "Ġgreen": 2052,
      "Ġsubject": 2053,
      "raft": 2054,
      "Ġ13": 2055,
      "Ġproduce": 2056,
      "ooking": 2057,
      "Ġcirc": 2058,
      "Ġfile": 2059,
      "ections": 2060,
      "ival": 2061,
      "Ġvirus": 2062,
      "alu": 2063,
      "Ġport": 2064,
      "Ġmonths": 2065,
      "ES": 2066,
      "Ġdig": 2067,
      "ched": 2068,
      "Ġask": 2069,
      "ĠAct": 2070,
      "ederal": 2071,
      "Ġincreased": 2072,
      "This": 2073,
      "lease": 2074,
      "Ġfeet": 2075,
      "ĠRep": 2076,
      "ornia": 2077,
      "Ġbecame": 2078,
      "____": 2079,
      "Ġsal": 2080,
      "ober": 2081,
      "ington": 2082,
      "Ġstat": 2083,
      "tal": 2084,
      "rict": 2085,
      "Ġoil": 2086,
      "Ġcondition": 2087,
      "Ġprograms": 2088,
      "Ġweight": 2089,
      "ĠAm": 2090,
      "Ġhouse": 2091,
      "Ġintrodu": 2092,
      "Ġwild": 2093,
      "ĠMost": 2094,
      "uel": 2095,
      "ification": 2096,
      "ĠChrist": 2097,
      "Ġevidence": 2098,
      "oney": 2099,
      "urs": 2100,
      "Ġcaused": 2101,
      "Ġprovided": 2102,
      "thing": 2103,
      "Ġparts": 2104,
      "Ġstudent": 2105,
      "Ġsimple": 2106,
      "vere": 2107,
      "ĠUs": 2108,
      "ann": 2109,
      "ising": 2110,
      "Ġfil": 2111,
      "erve": 2112,
      "ĠOther": 2113,
      "rated": 2114,
      "ĠJohn": 2115,
      "Ġexperience": 2116,
      "Ġver": 2117,
      "Ġcoll": 2118,
      "Ġonce": 2119,
      "ĠCalifornia": 2120,
      "Ġlab": 2121,
      "Ġexperim": 2122,
      "ĠCo": 2123,
      "ee": 2124,
      "Ġindividual": 2125,
      "Ġproducts": 2126,
      "Ġbacter": 2127,
      "ricult": 2128,
      "ĠMany": 2129,
      "18": 2130,
      "Ġsoft": 2131,
      "Ġdisord": 2132,
      "vey": 2133,
      "Ġlot": 2134,
      "Ġrole": 2135,
      "Ġ50": 2136,
      "Ġhttp": 2137,
      "Ġcauses": 2138,
      "Ġinflu": 2139,
      "icles": 2140,
      "Ġpattern": 2141,
      "Ġuses": 2142,
      "Ġquality": 2143,
      "acks": 2144,
      "Ġsix": 2145,
      "inc": 2146,
      "Ġnormal": 2147,
      "Ġenvironmental": 2148,
      "utes": 2149,
      "Ġrequired": 2150,
      "Ġactually": 2151,
      "Ġla": 2152,
      "augh": 2153,
      "iction": 2154,
      "ued": 2155,
      "Ġhold": 2156,
      "Ġinit": 2157,
      "sh": 2158,
      "Ġvacc": 2159,
      "ĠYour": 2160,
      "ivil": 2161,
      "ĠNo": 2162,
      "ength": 2163,
      "Ġreact": 2164,
      "ensive": 2165,
      "Ġmeet": 2166,
      "Ġfire": 2167,
      "ump": 2168,
      "Ġstory": 2169,
      "Ġexerc": 2170,
      "gest": 2171,
      "Ġincludes": 2172,
      "Ġdesigned": 2173,
      "ney": 2174,
      "Ġspread": 2175,
      "Ġx": 2176,
      "illed": 2177,
      "oman": 2178,
      "uals": 2179,
      "Ġonline": 2180,
      "Ġobserv": 2181,
      "Ġbuilding": 2182,
      "Ġstar": 2183,
      "iam": 2184,
      "enn": 2185,
      "Ġdoctor": 2186,
      "sych": 2187,
      "In": 2188,
      "rown": 2189,
      "rences": 2190,
      "ĠPe": 2191,
      "ĠYork": 2192,
      "Ġhours": 2193,
      "oura": 2194,
      "30": 2195,
      "Ġcontact": 2196,
      "for": 2197,
      "Ġreview": 2198,
      "Ġdem": 2199,
      "ibility": 2200,
      "Ġstates": 2201,
      "Ġreason": 2202,
      "Ġcarbon": 2203,
      "ulations": 2204,
      "Ġpath": 2205,
      "istic": 2206,
      "Ġmembers": 2207,
      "reg": 2208,
      "It": 2209,
      "aging": 2210,
      "Ġfail": 2211,
      "Ġess": 2212,
      "Ġcommunic": 2213,
      "Ġfactors": 2214,
      "Ġfru": 2215,
      "pid": 2216,
      "yn": 2217,
      "lying": 2218,
      "Ġnational": 2219,
      "wh": 2220,
      "AR": 2221,
      "ried": 2222,
      "Ġregion": 2223,
      "leep": 2224,
      "Ġfamil": 2225,
      "ibrary": 2226,
      "Ġnumbers": 2227,
      "Ġcity": 2228,
      "Ġconduct": 2229,
      "reme": 2230,
      "chan": 2231,
      "Ġdest": 2232,
      "Ġunderstanding": 2233,
      "estern": 2234,
      "mb": 2235,
      "Ġquick": 2236,
      "uck": 2237,
      "'ve": 2238,
      "Ġprevious": 2239,
      "Ġconsider": 2240,
      "hib": 2241,
      "Ġentire": 2242,
      "Ġpolit": 2243,
      "ĠGu": 2244,
      "Ġrather": 2245,
      "Ġpoll": 2246,
      "ĠPres": 2247,
      "ĠServ": 2248,
      "Ġhistor": 2249,
      "inci": 2250,
      "Ġliving": 2251,
      "Ġemer": 2252,
      "abetes": 2253,
      "ening": 2254,
      "Ġpict": 2255,
      "Ġalmost": 2256,
      "inks": 2257,
      "ma": 2258,
      "Ġearth": 2259,
      "Ġstop": 2260,
      "Ġabs": 2261,
      "lands": 2262,
      "Ġbar": 2263,
      "Ġparents": 2264,
      "IV": 2265,
      "'ll": 2266,
      "Ġarch": 2267,
      "idered": 2268,
      "fficient": 2269,
      "ĠWeb": 2270,
      "Ġcomplex": 2271,
      "Ġdiet": 2272,
      "Ġtoward": 2273,
      "Ġinfection": 2274,
      "Ġglobal": 2275,
      "Ġstandard": 2276,
      "inary": 2277,
      "itud": 2278,
      "icy": 2279,
      "Ġsurv": 2280,
      "arent": 2281,
      "Ġsat": 2282,
      "ucle": 2283,
      "Ġdetermine": 2284,
      "Ġsuper": 2285,
      "chie": 2286,
      "Ġinj": 2287,
      "Ġago": 2288,
      "Ġrecent": 2289,
      "Ġmagn": 2290,
      "Ġ2012": 2291,
      "Ġbuilt": 2292,
      "fact": 2293,
      "Ġbur": 2294,
      "ĠAustral": 2295,
      "Ġdom": 2296,
      "Ġsqu": 2297,
      "Ġrelations": 2298,
      "ronic": 2299,
      "Ġvide": 2300,
      "Ġability": 2301,
      "ivity": 2302,
      "Ġthought": 2303,
      "ĠQu": 2304,
      "Ġdispl": 2305,
      "selves": 2306,
      "ĠRec": 2307,
      "ened": 2308,
      "oose": 2309,
      "ĠWash": 2310,
      "Ġ197": 2311,
      "iddle": 2312,
      "Ġ25": 2313,
      "Ġrecogn": 2314,
      "Ġ/": 2315,
      "aged": 2316,
      "oles": 2317,
      "Ġknowledge": 2318,
      "go": 2319,
      "pro": 2320,
      "ĠAcc": 2321,
      "based": 2322,
      "ze": 2323,
      "Ġconsidered": 2324,
      "rapy": 2325,
      "Ġdamage": 2326,
      "Ġissues": 2327,
      "ume": 2328,
      "istics": 2329,
      "minist": 2330,
      "Ġreported": 2331,
      "Ġbehavior": 2332,
      "lt": 2333,
      "Ġtravel": 2334,
      "Ġsepar": 2335,
      "Ġmanagement": 2336,
      "cean": 2337,
      "ĠGod": 2338,
      "Ġslow": 2339,
      "AT": 2340,
      "ĠAlthough": 2341,
      "ĠCounty": 2342,
      "Ġfarm": 2343,
      "Ġcame": 2344,
      "aim": 2345,
      "Ġbab": 2346,
      "Ġtar": 2347,
      "Ġvariety": 2348,
      "Ġdefin": 2349,
      "Ġaverage": 2350,
      "ming": 2351,
      "Ġ*": 2352,
      "Ġbegan": 2353,
      "Ġassess": 2354,
      "ese": 2355,
      "Ġimages": 2356,
      "ront": 2357,
      "Ġanimal": 2358,
      "gency": 2359,
      "ĠApp": 2360,
      "ON": 2361,
      "ging": 2362,
      "Ġtree": 2363,
      "Ġcannot": 2364,
      "Ġstructure": 2365,
      "Ġbusiness": 2366,
      "ĠSu": 2367,
      "Ġexplain": 2368,
      "Ġselect": 2369,
      "Ġinteract": 2370,
      "Ġprop": 2371,
      "Ġwhole": 2372,
      "Ġskills": 2373,
      "onse": 2374,
      "duc": 2375,
      "Ġhealthy": 2376,
      "Ġtotal": 2377,
      "Ġtiss": 2378,
      "Ġlonger": 2379,
      "Ġtests": 2380,
      "bit": 2381,
      "Ġchall": 2382,
      "ctions": 2383,
      "pts": 2384,
      "Ġforest": 2385,
      "ĠProg": 2386,
      "Ġsubst": 2387,
      "amed": 2388,
      "Ġtrees": 2389,
      "Ġreading": 2390,
      "Ġdeveloping": 2391,
      "Ġthroughout": 2392,
      "val": 2393,
      "mosp": 2394,
      "Ġdog": 2395,
      "issions": 2396,
      "Ġshown": 2397,
      "ĠSpace": 2398,
      "rad": 2399,
      "Ġtaking": 2400,
      "Ġmiles": 2401,
      "Ġidentify": 2402,
      "Ġissue": 2403,
      "Ġheat": 2404,
      "anced": 2405,
      "cient": 2406,
      "Ġcode": 2407,
      "ĠJan": 2408,
      "IS": 2409,
      "itis": 2410,
      "IN": 2411,
      "ĠGerm": 2412,
      "Ġrelative": 2413,
      "ene": 2414,
      "ules": 2415,
      "Ġrepl": 2416,
      "13": 2417,
      "Ġidea": 2418,
      "ils": 2419,
      "Ġever": 2420,
      "Ġ196": 2421,
      "Ġtradition": 2422,
      "www": 2423,
      "Ġremov": 2424,
      "hing": 2425,
      "gn": 2426,
      "Ġvisit": 2427,
      "Ġarr": 2428,
      "200": 2429,
      "\".": 2430,
      "ĠRiver": 2431,
      "Ġcheck": 2432,
      "Ġanalysis": 2433,
      "load": 2434,
      "Ġsafe": 2435,
      "Ġsources": 2436,
      "Ġsmo": 2437,
      "ĠAc": 2438,
      "ĠBritish": 2439,
      "Ġtook": 2440,
      "ĠWashington": 2441,
      "Ġwarm": 2442,
      "Ġmethods": 2443,
      "ĠEd": 2444,
      "ĠCons": 2445,
      "ĠMedic": 2446,
      "ropri": 2447,
      "Ġnews": 2448,
      "Ġproduced": 2449,
      "Ġachie": 2450,
      "Ġschools": 2451,
      "cular": 2452,
      "ises": 2453,
      "Ġ2011": 2454,
      "Ġavoid": 2455,
      "acy": 2456,
      "aries": 2457,
      "Ġadded": 2458,
      "Ġcontent": 2459,
      "Ġitself": 2460,
      "ĠMe": 2461,
      "Ġbreak": 2462,
      "Ġinvestig": 2463,
      "Ġice": 2464,
      "Ġlate": 2465,
      "ĠHar": 2466,
      "iol": 2467,
      "Ġsolar": 2468,
      "Ġ2013": 2469,
      "urity": 2470,
      "imately": 2471,
      "Ġeat": 2472,
      "Ġclean": 2473,
      "Ġfem": 2474,
      "Ġfri": 2475,
      "Ġprobably": 2476,
      "ĠKe": 2477,
      "ĠWill": 2478,
      "Ġsea": 2479,
      "Ġfig": 2480,
      "ĠChild": 2481,
      "aily": 2482,
      "craft": 2483,
      "ography": 2484,
      "apan": 2485,
      "Ġdeb": 2486,
      "umb": 2487,
      "Ġcontains": 2488,
      "yle": 2489,
      "Ġtemperature": 2490,
      "Ġinvolved": 2491,
      "ellow": 2492,
      "itary": 2493,
      "bor": 2494,
      "erous": 2495,
      "epend": 2496,
      "overy": 2497,
      "Ġbasic": 2498,
      "Ġcomes": 2499,
      "Ġscientific": 2500,
      "Ġlog": 2501,
      "Ġyet": 2502,
      "Ġsex": 2503,
      "Ġservice": 2504,
      "Ġsitu": 2505,
      "Ġwritten": 2506,
      "Ġsometimes": 2507,
      "Ġsearch": 2508,
      "sect": 2509,
      "Ġox": 2510,
      "rought": 2511,
      "ID": 2512,
      "Ġnecessary": 2513,
      "ĠCanad": 2514,
      "ĠAssoci": 2515,
      "Ġhyd": 2516,
      "Ġstress": 2517,
      "useum": 2518,
      "ground": 2519,
      "Ġcho": 2520,
      "Ġevalu": 2521,
      "Ġneg": 2522,
      "ĠTr": 2523,
      "Ġmechan": 2524,
      "Ġmultip": 2525,
      "Ġsites": 2526,
      "Ġestim": 2527,
      "life": 2528,
      "Ġ2010": 2529,
      "ĠEduc": 2530,
      "Ġi": 2531,
      "cies": 2532,
      "ĠPublic": 2533,
      "Ġpay": 2534,
      "itation": 2535,
      "Ġmach": 2536,
      "ĠMarch": 2537,
      "Ġemploy": 2538,
      "ounts": 2539,
      "Ġsaf": 2540,
      "Ġhabit": 2541,
      "Ġactive": 2542,
      "Ġlarger": 2543,
      "aboratory": 2544,
      "Ġproced": 2545,
      "Ġpractice": 2546,
      "Ġorigin": 2547,
      "ĠSm": 2548,
      "Ġhumans": 2549,
      "Ġgreater": 2550,
      "Ġled": 2551,
      "thern": 2552,
      "Ġcorrect": 2553,
      "ĠInt": 2554,
      "Ġdemon": 2555,
      "Ġheav": 2556,
      "Ġbirth": 2557,
      "Ġdiseases": 2558,
      "Ġec": 2559,
      "ĠNow": 2560,
      "Ġinside": 2561,
      "ĠMin": 2562,
      "Ġmole": 2563,
      "Ġwood": 2564,
      "Ġarg": 2565,
      "Ġopportun": 2566,
      "ĠAg": 2567,
      "Ġmodern": 2568,
      "lies": 2569,
      "OR": 2570,
      "ancy": 2571,
      "Ġdocument": 2572,
      "ĠTechn": 2573,
      "Ġsevere": 2574,
      "Ġwebs": 2575,
      "Ġtarget": 2576,
      "adem": 2577,
      "Ġthemselves": 2578,
      "Ġexpos": 2579,
      "ply": 2580,
      "urch": 2581,
      "PA": 2582,
      "Ġlif": 2583,
      "Ġaccount": 2584,
      "Ġanswer": 2585,
      "ĠPer": 2586,
      "aff": 2587,
      "ĠColle": 2588,
      "Ġincluded": 2589,
      "ster": 2590,
      "fully": 2591,
      "ĠJapan": 2592,
      "Ġdemonst": 2593,
      "Ġmatter": 2594,
      "bo": 2595,
      "istance": 2596,
      "Ġoriginal": 2597,
      "Ġmicro": 2598,
      "ĠBec": 2599,
      "Ġmaintain": 2600,
      "Ġkids": 2601,
      "Ġdraw": 2602,
      "Ġ40": 2603,
      "Ġmess": 2604,
      "room": 2605,
      "Ġapproach": 2606,
      "Ġseries": 2607,
      "Ġincreasing": 2608,
      "Ġsleep": 2609,
      "Ġupon": 2610,
      "Ġserious": 2611,
      "Ġthreat": 2612,
      "arily": 2613,
      "iet": 2614,
      "light": 2615,
      "Ġjob": 2616,
      "Ġveget": 2617,
      "ĠGl": 2618,
      "oor": 2619,
      "ĠII": 2620,
      "Ġdeep": 2621,
      "sequ": 2622,
      "Ġsafety": 2623,
      "Ġresponse": 2624,
      "aches": 2625,
      "Ġevents": 2626,
      "ĠJu": 2627,
      "Ġ24": 2628,
      "Ġcompon": 2629,
      "Ġsuff": 2630,
      "Ġrock": 2631,
      "izing": 2632,
      "my": 2633,
      "ĠDav": 2634,
      "year": 2635,
      "ades": 2636,
      "Ġself": 2637,
      "Ġgrowing": 2638,
      "Ġobjects": 2639,
      "Ġcover": 2640,
      "vention": 2641,
      "Ġrights": 2642,
      "Ġservices": 2643,
      "ĠTw": 2644,
      "atab": 2645,
      "apt": 2646,
      "Ġliter": 2647,
      "Ġelectric": 2648,
      "Ġoutside": 2649,
      "Ġrelationship": 2650,
      "utions": 2651,
      "Ġscreen": 2652,
      "Ġprint": 2653,
      "Ġofficial": 2654,
      "Ġste": 2655,
      "hood": 2656,
      "Ġimplement": 2657,
      "rogen": 2658,
      "irm": 2659,
      "Ġdiabetes": 2660,
      "ached": 2661,
      "Ġposition": 2662,
      "Ġeasy": 2663,
      "ĠHis": 2664,
      "ĠComp": 2665,
      "Ġlat": 2666,
      "outhern": 2667,
      "Ġeye": 2668,
      "Ġstrateg": 2669,
      "Ġweb": 2670,
      "Ġ,": 2671,
      "uary": 2672,
      "Ġens": 2673,
      "verse": 2674,
      "ĠFrom": 2675,
      "ript": 2676,
      "14": 2677,
      "Ġeconomic": 2678,
      "Ġconc": 2679,
      "rial": 2680,
      "Ġindividuals": 2681,
      "Ġstra": 2682,
      "Ġthous": 2683,
      "Ġdoesn": 2684,
      "lex": 2685,
      "rees": 2686,
      "Ġtur": 2687,
      "Ġpriv": 2688,
      "Ġpopular": 2689,
      "ĠSec": 2690,
      "Ġadditional": 2691,
      "Ġgenerally": 2692,
      "ĠPart": 2693,
      "ĠJew": 2694,
      "oes": 2695,
      "Ġnature": 2696,
      "Ġsound": 2697,
      "ai": 2698,
      "ields": 2699,
      "ription": 2700,
      "astic": 2701,
      "ris": 2702,
      "Ġnation": 2703,
      "Ġcenter": 2704,
      "Ġregular": 2705,
      "Ġexc": 2706,
      "Ġfoods": 2707,
      "Ġforms": 2708,
      "usion": 2709,
      "Ġnearly": 2710,
      "Ġut": 2711,
      "Ġindustry": 2712,
      "hern": 2713,
      "Ġcard": 2714,
      "Ġir": 2715,
      "lick": 2716,
      "Ġfindings": 2717,
      "cks": 2718,
      "ops": 2719,
      "Ġegg": 2720,
      "Ġplanet": 2721,
      "ĠMars": 2722,
      "ĠHere": 2723,
      "Ġprinci": 2724,
      "Ġetc": 2725,
      "Ġatmosp": 2726,
      "Ġnucle": 2727,
      "Ġattack": 2728,
      "hy": 2729,
      "Ġrare": 2730,
      "ĠDes": 2731,
      "ĠAug": 2732,
      "ĠJune": 2733,
      "Ġtakes": 2734,
      "Ġgenetic": 2735,
      "ension": 2736,
      "AN": 2737,
      "Ġdrugs": 2738,
      "ino": 2739,
      "15": 2740,
      "ĠOct": 2741,
      "kn": 2742,
      "ĠApr": 2743,
      "inical": 2744,
      "Ġbacteria": 2745,
      "Ġlives": 2746,
      "ister": 2747,
      "Ġweather": 2748,
      "Ġweeks": 2749,
      "Ġcolon": 2750,
      "Ġlength": 2751,
      "ĠNot": 2752,
      "Ġsection": 2753,
      "Ġlooking": 2754,
      "Ġgetting": 2755,
      "rior": 2756,
      "Ġcamp": 2757,
      "ĠHistory": 2758,
      "gar": 2759,
      "ĠWest": 2760,
      "ĠInc": 2761,
      "ĠMon": 2762,
      "ufact": 2763,
      "Ġcontinue": 2764,
      "Ġthing": 2765,
      "ĠSystem": 2766,
      "Ġterms": 2767,
      "aters": 2768,
      "Ġextreme": 2769,
      "Ġadults": 2770,
      "Ġencoura": 2771,
      "Ġmoney": 2772,
      "ĠUse": 2773,
      "Ġ194": 2774,
      "Ġmarket": 2775,
      "ospital": 2776,
      "ror": 2777,
      "Ġdry": 2778,
      "ropriate": 2779,
      "ĠAccording": 2780,
      "Ġaction": 2781,
      "Ġcompared": 2782,
      "Ġbirds": 2783,
      "Ġfeed": 2784,
      "ls": 2785,
      "Ġwriting": 2786,
      "Ġtraining": 2787,
      "ĠDuring": 2788,
      "ĠSur": 2789,
      "pper": 2790,
      "Ġmor": 2791,
      "Ġleaves": 2792,
      "Ġvideo": 2793,
      "Ġprimary": 2794,
      "Ġapplication": 2795,
      "Ġbelieve": 2796,
      "ĠEnvironment": 2797,
      "ief": 2798,
      "Ġjo": 2799,
      "Ġparticularly": 2800,
      "ĠOf": 2801,
      "orthern": 2802,
      "Ġpoints": 2803,
      "Ġ...": 2804,
      "Ġmemory": 2805,
      "Ġdark": 2806,
      "ners": 2807,
      "ĠLear": 2808,
      "ille": 2809,
      "16": 2810,
      "ĠAmericans": 2811,
      "Ġseem": 2812,
      "Ġdoing": 2813,
      "Ġconcent": 2814,
      "gery": 2815,
      "DA": 2816,
      "Ġbr": 2817,
      "Ġallows": 2818,
      "Ġce": 2819,
      "Ġbase": 2820,
      "Ġnorth": 2821,
      "Ġrelig": 2822,
      "Ġinteg": 2823,
      "Ġsoftware": 2824,
      "Ġbring": 2825,
      "Ġteachers": 2826,
      "elling": 2827,
      "Ġnetwork": 2828,
      "ribution": 2829,
      "aces": 2830,
      "ĠEach": 2831,
      "Ġsense": 2832,
      "Ġsummer": 2833,
      "ĠStudents": 2834,
      "ĠHIV": 2835,
      "ĠDNA": 2836,
      "Ġtrue": 2837,
      "Ġbreast": 2838,
      "Ġ2009": 2839,
      "Ġcollection": 2840,
      "Ġpoor": 2841,
      "Ġregard": 2842,
      "Ġtend": 2843,
      "undred": 2844,
      "Ġsil": 2845,
      "ĠEm": 2846,
      "hold": 2847,
      "atives": 2848,
      "ties": 2849,
      "Ġwinter": 2850,
      "term": 2851,
      "Ġprep": 2852,
      "ĠPark": 2853,
      "Ġforce": 2854,
      "Ġseason": 2855,
      "Ġlocated": 2856,
      "Ġpan": 2857,
      "ĠTra": 2858,
      "Ġnight": 2859,
      "ĠEl": 2860,
      "Ġmind": 2861,
      "Ġbooks": 2862,
      "Ġ:": 2863,
      "Ġsus": 2864,
      "iques": 2865,
      "Ġwall": 2866,
      "Ġcam": 2867,
      "ĠIndian": 2868,
      "Ġpatient": 2869,
      "imum": 2870,
      "ĠAlso": 2871,
      "Ġcompany": 2872,
      "ĠRead": 2873,
      "ĠAfrican": 2874,
      "Ġpregn": 2875,
      "Ġfeatures": 2876,
      "ĠSept": 2877,
      "Ġfuel": 2878,
      "Ġgard": 2879,
      "lied": 2880,
      "Ġuseful": 2881,
      "isms": 2882,
      "Ġtools": 2883,
      "IC": 2884,
      "Ġpack": 2885,
      "ĠMedicine": 2886,
      "udd": 2887,
      "Ġhost": 2888,
      "iot": 2889,
      "Ġsimply": 2890,
      "water": 2891,
      "ching": 2892,
      "ĠProgram": 2893,
      "AS": 2894,
      "Ġdou": 2895,
      "Ġrefer": 2896,
      "ĠMc": 2897,
      "Ġsouth": 2898,
      "Ġprotein": 2899,
      "Ġmap": 2900,
      "Ġfederal": 2901,
      "uge": 2902,
      "Ġexercise": 2903,
      "Ġtesting": 2904,
      "Ġdecre": 2905,
      "Ġrates": 2906,
      "Ġface": 2907,
      "ĠSince": 2908,
      "ĠPar": 2909,
      "ĠBecause": 2910,
      "Ġmultiple": 2911,
      "ĠKing": 2912,
      "Ġmission": 2913,
      "Ġtable": 2914,
      "Ġcapt": 2915,
      "ĠVir": 2916,
      "ĠApril": 2917,
      "ĠFeb": 2918,
      "pose": 2919,
      "Ġdirectly": 2920,
      "Ġgene": 2921,
      "reng": 2922,
      "Ġacid": 2923,
      "Ġdang": 2924,
      "Ġwrite": 2925,
      "ĠDis": 2926,
      "Ġpersonal": 2927,
      "Ġquickly": 2928,
      "Ġlines": 2929,
      "Ġspeed": 2930,
      "bre": 2931,
      "Ġdaily": 2932,
      "Ġanaly": 2933,
      "Ġrout": 2934,
      "Ġbit": 2935,
      "Ġprofessor": 2936,
      "Ġcross": 2937,
      "Ġreve": 2938,
      "17": 2939,
      "Ġoccurs": 2940,
      "Ġuser": 2941,
      "aling": 2942,
      "Ġinsect": 2943,
      "where": 2944,
      "eration": 2945,
      "ĠJuly": 2946,
      "Ġmill": 2947,
      "Ġbroad": 2948,
      "Ġmeaning": 2949,
      "ĠReg": 2950,
      "ĠInternational": 2951,
      "Ġtown": 2952,
      "itude": 2953,
      "Ġhelps": 2954,
      "Ġdiscovered": 2955,
      "Ġmovement": 2956,
      "Ġpolitical": 2957,
      "Ġpsych": 2958,
      "tic": 2959,
      "Ġeasily": 2960,
      "ĠFran": 2961,
      "Ġmonitor": 2962,
      "omy": 2963,
      "istry": 2964,
      "ĠMy": 2965,
      "ĠAnt": 2966,
      "Ġinstead": 2967,
      "Ġball": 2968,
      "St": 2969,
      "ban": 2970,
      "isions": 2971,
      "Ġaltern": 2972,
      "ĠCong": 2973,
      "Ġbott": 2974,
      "ĠChar": 2975,
      "head": 2976,
      "Ġthird": 2977,
      "Ġtub": 2978,
      "Ġrev": 2979,
      "Ġconsist": 2980,
      "Ġemb": 2981,
      "Ġbul": 2982,
      "ĠBi": 2983,
      "ĠTy": 2984,
      "Ġmount": 2985,
      "\",": 2986,
      "Ġcool": 2987,
      "Ġminutes": 2988,
      "Ġdevice": 2989,
      "Ġhar": 2990,
      "Ġbal": 2991,
      "Ġattem": 2992,
      "Ġdisplay": 2993,
      "Ġmusic": 2994,
      "estic": 2995,
      "Ġsequ": 2996,
      "Ġdifference": 2997,
      "Ġcoast": 2998,
      "EN": 2999,
      "Ġmanufact": 3000,
      "Ġcoun": 3001,
      "Ġsmaller": 3002,
      "Ġang": 3003,
      "ided": 3004,
      "Ġ2008": 3005,
      "Ġhot": 3006,
      "Ġlargest": 3007,
      "erson": 3008,
      "Ġcold": 3009,
      "Ġapplications": 3010,
      "iency": 3011,
      "lier": 3012,
      "che": 3013,
      "Ġpositive": 3014,
      "Ġstri": 3015,
      "ulate": 3016,
      "Ġtax": 3017,
      "Wh": 3018,
      "Ġimmedi": 3019,
      "Ġveh": 3020,
      "rition": 3021,
      "Ġrob": 3022,
      "ĠHigh": 3023,
      "cell": 3024,
      "Ġexposure": 3025,
      "Ġfront": 3026,
      "Ġcurrently": 3027,
      "Ġinstru": 3028,
      "Ġversion": 3029,
      "Ġolder": 3030,
      "iter": 3031,
      "Ġhundred": 3032,
      "Ġbra": 3033,
      "Ġvalues": 3034,
      "Ġcompet": 3035,
      "Ġbenefits": 3036,
      "vest": 3037,
      "Ġunique": 3038,
      "Ġ21": 3039,
      "Ġdatab": 3040,
      "25": 3041,
      "Ġclaim": 3042,
      "Ġcorn": 3043,
      "Ġtheory": 3044,
      "ulf": 3045,
      "Ġsold": 3046,
      "Ġrain": 3047,
      "Ġbehind": 3048,
      "Ġharm": 3049,
      "IT": 3050,
      "Ġfamilies": 3051,
      "Ġfast": 3052,
      "ĠService": 3053,
      "Ġpredict": 3054,
      "Ġwa": 3055,
      "Ġradiation": 3056,
      "Ġestablished": 3057,
      "Ġroad": 3058,
      "Ġcentral": 3059,
      "Ġtissue": 3060,
      "ĠEducation": 3061,
      "ED": 3062,
      "Ġstarted": 3063,
      "Ġfoot": 3064,
      "ĠPol": 3065,
      "Ġcarry": 3066,
      "can": 3067,
      "ĠFirst": 3068,
      "Ġwhose": 3069,
      "Ġgame": 3070,
      "Ġelectr": 3071,
      "Ġjournal": 3072,
      "Ġreflect": 3073,
      "hens": 3074,
      "Ġattention": 3075,
      "dom": 3076,
      "Ġap": 3077,
      "ĠEuropean": 3078,
      "Ġagricult": 3079,
      "Ġdetect": 3080,
      "rs": 3081,
      "rig": 3082,
      "Ġexpected": 3083,
      "coh": 3084,
      "Ġexact": 3085,
      "Ġwebsite": 3086,
      "ĠThen": 3087,
      "Ġtechniques": 3088,
      "Ġsomeone": 3089,
      "Ġhor": 3090,
      "Ġviol": 3091,
      "wor": 3092,
      "Ġlaun": 3093,
      "ĠBar": 3094,
      "Ġbillion": 3095,
      "anks": 3096,
      "Ġult": 3097,
      "Ġgot": 3098,
      "Ġ+": 3099,
      "Ġappropriate": 3100,
      "cohol": 3101,
      "iers": 3102,
      "imin": 3103,
      "ipment": 3104,
      "nes": 3105,
      "Ġleading": 3106,
      "ĠChina": 3107,
      "Ġstreng": 3108,
      "ĠWater": 3109,
      "Ġprof": 3110,
      "att": 3111,
      "Ġlocation": 3112,
      "Ġdiv": 3113,
      "Ġcompan": 3114,
      "Ġlack": 3115,
      "ĠCur": 3116,
      "oe": 3117,
      "aving": 3118,
      "Ġgain": 3119,
      "ĠTex": 3120,
      "ĠGra": 3121,
      "Ġcalcul": 3122,
      "Ġmid": 3123,
      "Ġstream": 3124,
      "ively": 3125,
      "Ġinstall": 3126,
      "ĠAssociation": 3127,
      "Ġtold": 3128,
      "book": 3129,
      "Ġalthough": 3130,
      "ologist": 3131,
      "encies": 3132,
      "Ġquant": 3133,
      "uff": 3134,
      "ocks": 3135,
      "Ġobtain": 3136,
      "ĠInternet": 3137,
      "ĠSub": 3138,
      "Ġsoon": 3139,
      "ula": 3140,
      "uries": 3141,
      "Ġquite": 3142,
      "Ġaccept": 3143,
      "hel": 3144,
      "ĠSan": 3145,
      "Ġvit": 3146,
      "Ġheld": 3147,
      "mitted": 3148,
      "amb": 3149,
      "oming": 3150,
      "Ġinternational": 3151,
      "Ġperformance": 3152,
      "Ġtransport": 3153,
      "Ġshare": 3154,
      "Ġborn": 3155,
      "ĠArt": 3156,
      "Ġdevices": 3157,
      "Ġreceived": 3158,
      "Ġcontribut": 3159,
      "ĠJournal": 3160,
      "ĠWilliam": 3161,
      "Ġextra": 3162,
      "wide": 3163,
      "ĠMedical": 3164,
      "Ġhands": 3165,
      "Ġantib": 3166,
      "hemat": 3167,
      "ĠCity": 3168,
      "ĠSociety": 3169,
      "ĠCor": 3170,
      "ĠMod": 3171,
      "Ġbone": 3172,
      "Ġrapid": 3173,
      "Ġdecl": 3174,
      "Ġideas": 3175,
      "Ġgraph": 3176,
      "hors": 3177,
      "rates": 3178,
      "Ġsurround": 3179,
      "imal": 3180,
      "rast": 3181,
      "):": 3182,
      "ĠJanuary": 3183,
      "cil": 3184,
      "Ġcommand": 3185,
      "ĠAfrica": 3186,
      "ĠSee": 3187,
      "Ġcommunities": 3188,
      "ĠInformation": 3189,
      "Ġrecently": 3190,
      "Ġexcept": 3191,
      "ĠProfess": 3192,
      "ift": 3193,
      "Ġtypically": 3194,
      "mission": 3195,
      "Ġcommer": 3196,
      "Ġprojects": 3197,
      "ĠPresident": 3198,
      "Ġhighly": 3199,
      "rection": 3200,
      "Ġcritical": 3201,
      "reek": 3202,
      "Ġsupply": 3203,
      "era": 3204,
      "ĠWhy": 3205,
      "rome": 3206,
      "haps": 3207,
      "idents": 3208,
      "Ġbeginning": 3209,
      "Ġapprox": 3210,
      "apter": 3211,
      "oring": 3212,
      "Ġprior": 3213,
      "ĠWind": 3214,
      "cember": 3215,
      "Ġefforts": 3216,
      "ky": 3217,
      "inct": 3218,
      "Ġfiles": 3219,
      "exic": 3220,
      "ĠMich": 3221,
      "Ġprogress": 3222,
      "atric": 3223,
      "see": 3224,
      "ĠAugust": 3225,
      "Ġreceive": 3226,
      "Ġlo": 3227,
      "Ġaffected": 3228,
      "entially": 3229,
      "Ġpages": 3230,
      "ĠScient": 3231,
      "Ġgradu": 3232,
      "edia": 3233,
      ");": 3234,
      "Ġindepend": 3235,
      "Ġdied": 3236,
      "ura": 3237,
      "Ġrequires": 3238,
      "Ġexpect": 3239,
      "enced": 3240,
      "cles": 3241,
      "iny": 3242,
      "Ġdead": 3243,
      "mar": 3244,
      "Ġ60": 3245,
      "Ġculture": 3246,
      "ĠOver": 3247,
      "Ġlost": 3248,
      "wise": 3249,
      "Ġblue": 3250,
      "elt": 3251,
      "ĠGreat": 3252,
      "Ġcopy": 3253,
      "ĠNews": 3254,
      "Ġtherapy": 3255,
      "ĠOur": 3256,
      "Ġbreat": 3257,
      "Ġelements": 3258,
      "Ġformed": 3259,
      "Ġastron": 3260,
      "Ġtum": 3261,
      "ĠHer": 3262,
      "Ġcit": 3263,
      "Ġstay": 3264,
      "Ġbox": 3265,
      "oud": 3266,
      "Ġdate": 3267,
      "Ġbaby": 3268,
      "ĠTexas": 3269,
      "Ġspring": 3270,
      "Ġrelease": 3271,
      "ida": 3272,
      "Ġdegrees": 3273,
      "ologies": 3274,
      "rops": 3275,
      "ĠDay": 3276,
      "Ġprocesses": 3277,
      "osing": 3278,
      "Ġstandards": 3279,
      "Ġshape": 3280,
      "ius": 3281,
      "oma": 3282,
      "aly": 3283,
      "Ġgoal": 3284,
      "Ġsurgery": 3285,
      "asons": 3286,
      "Ġplaces": 3287,
      "ĠInter": 3288,
      "Ġtox": 3289,
      "Ġpolicy": 3290,
      "alking": 3291,
      "Ġcommit": 3292,
      "oration": 3293,
      "Ġ2007": 3294,
      "rag": 3295,
      "ĠExpl": 3296,
      "ault": 3297,
      "Ġnamed": 3298,
      "Ġmiddle": 3299,
      "ĠAustralia": 3300,
      "Ġcontroll": 3301,
      "bol": 3302,
      "Ġancient": 3303,
      "ĠAre": 3304,
      "Ġstars": 3305,
      "Ġinterp": 3306,
      "ama": 3307,
      "arr": 3308,
      "Ġequipment": 3309,
      "rote": 3310,
      "ĠCollege": 3311,
      "Ġexec": 3312,
      "Ġlung": 3313,
      "Ġrecommend": 3314,
      "ologists": 3315,
      "Ġappears": 3316,
      "ĠChildren": 3317,
      "Ġexpress": 3318,
      "Ġrespond": 3319,
      "Ġremains": 3320,
      "Ġbad": 3321,
      "Ġresource": 3322,
      "ographic": 3323,
      "Ġfram": 3324,
      "istant": 3325,
      "'m": 3326,
      "ĠOb": 3327,
      "Ġadj": 3328,
      "ĠRed": 3329,
      "orial": 3330,
      "Ġgenes": 3331,
      "izations": 3332,
      "ĠMexic": 3333,
      "Ġoffer": 3334,
      "ying": 3335,
      "resh": 3336,
      "Ġshowed": 3337,
      "ste": 3338,
      "avor": 3339,
      "Ġreach": 3340,
      "Ġlimited": 3341,
      "ĠEven": 3342,
      "iece": 3343,
      "Ġillness": 3344,
      "ĠAut": 3345,
      "uman": 3346,
      "Ġeating": 3347,
      "Ġprec": 3348,
      "odies": 3349,
      "ĠVal": 3350,
      "ĠEngland": 3351,
      "Ġkill": 3352,
      "Ġconcept": 3353,
      "stain": 3354,
      "Ġtraditional": 3355,
      "Ġimmune": 3356,
      "Ġcommonly": 3357,
      "ĠSeptember": 3358,
      "ridge": 3359,
      "Ġfunctions": 3360,
      "ĠOctober": 3361,
      "leb": 3362,
      "Ġrespect": 3363,
      "Ġwaste": 3364,
      "Ġradio": 3365,
      "ĠPeople": 3366,
      "tes": 3367,
      "izes": 3368,
      "Ġhope": 3369,
      "pes": 3370,
      "ygen": 3371,
      "Ġeth": 3372,
      "Ġmilitary": 3373,
      "ĠSw": 3374,
      "Ġblock": 3375,
      "Ġteaching": 3376,
      "oly": 3377,
      "Ġpoly": 3378,
      "name": 3379,
      "ĠInst": 3380,
      "Ġidentified": 3381,
      "Ġresponsible": 3382,
      "ovember": 3383,
      "Ġmix": 3384,
      "ample": 3385,
      "ĠDise": 3386,
      "Ġinfl": 3387,
      "Ġeyes": 3388,
      "ĠFound": 3389,
      "ero": 3390,
      "Ġeight": 3391,
      "ĠCanada": 3392,
      "Ġelse": 3393,
      "Ġinstit": 3394,
      "Ġaff": 3395,
      "Ġnames": 3396,
      "ET": 3397,
      "Ġsociety": 3398,
      "cers": 3399,
      "ford": 3400,
      "Ġautom": 3401,
      "Ġreports": 3402,
      "Ġnative": 3403,
      "ĠDavid": 3404,
      "Ġcivil": 3405,
      "Ġmodels": 3406,
      "ĠDevelop": 3407,
      "olar": 3408,
      "Ġ22": 3409,
      "ĠChe": 3410,
      "ĠSim": 3411,
      "Ġ#": 3412,
      "osa": 3413,
      "Ġusers": 3414,
      "Ġsurvey": 3415,
      "odes": 3416,
      "Ġcra": 3417,
      "ĠCongress": 3418,
      "Ġrecords": 3419,
      "Ġaccom": 3420,
      "Ġconver": 3421,
      "Ġplaced": 3422,
      "ĠIndia": 3423,
      "Ġseems": 3424,
      "Ġevolution": 3425,
      "Ġpicture": 3426,
      "Ġfit": 3427,
      "ana": 3428,
      "tery": 3429,
      "AL": 3430,
      "Ġbeg": 3431,
      "Ġprotection": 3432,
      "Ġthousands": 3433,
      "Ġaud": 3434,
      "Ġadminist": 3435,
      "itch": 3436,
      "Ġmember": 3437,
      "Ġgal": 3438,
      "Ġwent": 3439,
      "ĠProject": 3440,
      "Ġemissions": 3441,
      "Ġcosts": 3442,
      "ĠAss": 3443,
      "ctors": 3444,
      "ords": 3445,
      "rows": 3446,
      "time": 3447,
      "Ġgives": 3448,
      "cher": 3449,
      "Ġearlier": 3450,
      "rench": 3451,
      "ĠGeneral": 3452,
      "60": 3453,
      "Ġatmosphere": 3454,
      "oses": 3455,
      "AC": 3456,
      "Ġsustain": 3457,
      "Ġcred": 3458,
      "Ġtrying": 3459,
      "ribute": 3460,
      "Ġpet": 3461,
      "Ġdisorder": 3462,
      "Ġguid": 3463,
      "Ġassign": 3464,
      "Ġchalleng": 3465,
      "ĠPhil": 3466,
      "ĠDecember": 3467,
      "osy": 3468,
      "uls": 3469,
      "pan": 3470,
      "Ġocean": 3471,
      "Ġ23": 3472,
      "yond": 3473,
      "Ġmedicine": 3474,
      "ruary": 3475,
      "Ġproperty": 3476,
      "Ġfruit": 3477,
      "atur": 3478,
      "Ġvaccine": 3479,
      "Ġones": 3480,
      "ĠSun": 3481,
      "ustom": 3482,
      "ims": 3483,
      "Ġprivate": 3484,
      "Ġelement": 3485,
      "Ġachieve": 3486,
      "Ġsugar": 3487,
      "ĠTrans": 3488,
      "Ġexamples": 3489,
      "ĠNet": 3490,
      "off": 3491,
      "Ġinfections": 3492,
      "Ġtalk": 3493,
      "Ġasked": 3494,
      "40": 3495,
      "ndrome": 3496,
      "Ġmut": 3497,
      "ĠCO": 3498,
      "Ġeffort": 3499,
      "Ġstorm": 3500,
      "Ġfib": 3501,
      "ĠMiss": 3502,
      "Ġscale": 3503,
      "Ġdescribed": 3504,
      "uous": 3505,
      "Ġarm": 3506,
      "Ġdistance": 3507,
      "Ġmiss": 3508,
      "Ġtreated": 3509,
      "Ġpen": 3510,
      "Ġspect": 3511,
      "ĠClick": 3512,
      "Ġroom": 3513,
      "gy": 3514,
      "ĠOff": 3515,
      "Ġphysic": 3516,
      "Ġessential": 3517,
      "Ġpopulations": 3518,
      "Ġsample": 3519,
      "Ġsatell": 3520,
      "Ġfollowed": 3521,
      "ensity": 3522,
      "Ġep": 3523,
      "ech": 3524,
      "Ġthus": 3525,
      "ĠMic": 3526,
      "ĠArch": 3527,
      "nov": 3528,
      "Ġsett": 3529,
      "Ġcru": 3530,
      "ext": 3531,
      "Ġfinal": 3532,
      "ĠOnce": 3533,
      "Ġreleased": 3534,
      "Ġalcohol": 3535,
      "ĠUsing": 3536,
      "Ġmoving": 3537,
      "ĠGreen": 3538,
      "Ġsuggests": 3539,
      "ĠAbout": 3540,
      "Ġensure": 3541,
      "80": 3542,
      "rew": 3543,
      "Ġunit": 3544,
      "ham": 3545,
      "Ġves": 3546,
      "Ġcreating": 3547,
      "ulated": 3548,
      "na": 3549,
      "Ġpurpose": 3550,
      "bur": 3551,
      "iff": 3552,
      "lor": 3553,
      "ĠMuseum": 3554,
      "ha": 3555,
      "Ġupd": 3556,
      "Ġ2000": 3557,
      "ĠDi": 3558,
      "Ġfight": 3559,
      "Ġfields": 3560,
      "Ġsolution": 3561,
      "Ġpatterns": 3562,
      "Ġdifferences": 3563,
      "Ġproviding": 3564,
      "oday": 3565,
      "Ġnan": 3566,
      "Ġsigns": 3567,
      "bl": 3568,
      "airs": 3569,
      "Ġbecomes": 3570,
      "Ġtele": 3571,
      "Ġkid": 3572,
      "related": 3573,
      "ĠNovember": 3574,
      "Ġmouth": 3575,
      "iar": 3576,
      "Ġriver": 3577,
      "Ġwon": 3578,
      "Ġrot": 3579,
      "more": 3580,
      "ĠLibrary": 3581,
      "Ġoxygen": 3582,
      "Ġbrought": 3583,
      "back": 3584,
      "Ġcop": 3585,
      "ceed": 3586,
      "Ġsymbol": 3587,
      "Ġillust": 3588,
      "Ġnegative": 3589,
      "Ġinstruct": 3590,
      "Ġrelatively": 3591,
      "Ġcou": 3592,
      "Ġdatabase": 3593,
      "house": 3594,
      "Ġconce": 3595,
      "Ġhair": 3596,
      "set": 3597,
      "Ġdirector": 3598,
      "imens": 3599,
      "aught": 3600,
      "used": 3601,
      "Ġswe": 3602,
      "Ġteacher": 3603,
      "ĠPlan": 3604,
      "fect": 3605,
      "erate": 3606,
      "aled": 3607,
      "Ġmedia": 3608,
      "iment": 3609,
      "known": 3610,
      "Ġmother": 3611,
      "son": 3612,
      "ictionary": 3613,
      "Ġ2006": 3614,
      "Ġexpand": 3615,
      "PS": 3616,
      "Ġbottom": 3617,
      "ĠFlor": 3618,
      "Ġregions": 3619,
      "Ġmig": 3620,
      "Ġnuclear": 3621,
      "Ġtherefore": 3622,
      "arian": 3623,
      "Ġroot": 3624,
      "isl": 3625,
      "ĠProt": 3626,
      "Ġapplied": 3627,
      "Ġreduced": 3628,
      "iant": 3629,
      "Ġsecurity": 3630,
      "Ġvia": 3631,
      "hest": 3632,
      "Ġanything": 3633,
      "rance": 3634,
      "lection": 3635,
      "Ġhyp": 3636,
      "Ġdegree": 3637,
      "Ġcompanies": 3638,
      "pite": 3639,
      "Ġletter": 3640,
      "ĠAir": 3641,
      "Ġwrote": 3642,
      "Ġfert": 3643,
      "rations": 3644,
      "ĠGovern": 3645,
      "Ġaspect": 3646,
      "Ġestablish": 3647,
      "Ġworkers": 3648,
      "Ġstage": 3649,
      "ender": 3650,
      "semb": 3651,
      "ĠDec": 3652,
      "Ġrise": 3653,
      "Ġtit": 3654,
      "Ġlinks": 3655,
      "Ġtemperatures": 3656,
      "roke": 3657,
      "come": 3658,
      "Ġdepend": 3659,
      "Ġvessel": 3660,
      "Ġproperties": 3661,
      "ĠMary": 3662,
      "Ġfemale": 3663,
      "Ġvisual": 3664,
      "now": 3665,
      "ocol": 3666,
      "Ġflood": 3667,
      "Ġconnect": 3668,
      "ĠBo": 3669,
      "Ġrunning": 3670,
      "osition": 3671,
      "ĠPress": 3672,
      "Ġconstruction": 3673,
      "Ġmuscle": 3674,
      "Ġaw": 3675,
      "Ġmeasures": 3676,
      "Ġliqu": 3677,
      "ST": 3678,
      "asts": 3679,
      "ogen": 3680,
      "pped": 3681,
      "Ġbasis": 3682,
      "ĠTheir": 3683,
      "Ġbenefit": 3684,
      "Ġemail": 3685,
      "ĠPhys": 3686,
      "EC": 3687,
      "Ġconstruct": 3688,
      "ĠPost": 3689,
      "ctic": 3690,
      "Ġapproximately": 3691,
      "aker": 3692,
      "ava": 3693,
      "Ġupper": 3694,
      "Ġattempt": 3695,
      "alt": 3696,
      "Ġload": 3697,
      "ony": 3698,
      "Ġgrass": 3699,
      "ĠAnother": 3700,
      "rehens": 3701,
      "Ġsaw": 3702,
      "ĠFebruary": 3703,
      "Ġguide": 3704,
      "ĠEnvironmental": 3705,
      "Ġisn": 3706,
      "Ġder": 3707,
      "Ġplease": 3708,
      "ĠHouse": 3709,
      "west": 3710,
      "Ġgoes": 3711,
      "vant": 3712,
      "Ġinteresting": 3713,
      "ĠPa": 3714,
      "Ġgarden": 3715,
      "ĠUnder": 3716,
      "ios": 3717,
      "ĠWild": 3718,
      "Ġclinical": 3719,
      "Ġwet": 3720,
      "Ġexperiment": 3721,
      "equ": 3722,
      "Ġdisorders": 3723,
      "Ġsuccessful": 3724,
      "orge": 3725,
      "Ġmo": 3726,
      "Ġund": 3727,
      "ully": 3728,
      "Ġmental": 3729,
      ":||": 3730,
      "Ġincreases": 3731,
      "ĠSch": 3732,
      "orage": 3733,
      "Ġhous": 3734,
      "ĠRel": 3735,
      "Ġcompletely": 3736,
      "itect": 3737,
      "ĠVirgin": 3738,
      "ĠCommun": 3739,
      "Ġ2005": 3740,
      "Ġdestro": 3741,
      "Ġcapac": 3742,
      "Ġseven": 3743,
      "Ġtou": 3744,
      "ĠMount": 3745,
      "ĠJust": 3746,
      "bed": 3747,
      "Ġconducted": 3748,
      "Ġslight": 3749,
      "ĠRuss": 3750,
      "Ġaccur": 3751,
      "Ġchanged": 3752,
      "zz": 3753,
      "Ġdirection": 3754,
      "Ġlove": 3755,
      "Ġfinding": 3756,
      "Ġpiece": 3757,
      "ager": 3758,
      "ĠFore": 3759,
      "Ġsteps": 3760,
      "Ġseed": 3761,
      "uk": 3762,
      "Ġspir": 3763,
      "new": 3764,
      "Ġreference": 3765,
      "ĠCarol": 3766,
      "Ġmax": 3767,
      "rest": 3768,
      "ĠBlack": 3769,
      "Ġten": 3770,
      "ĠSpe": 3771,
      "Ġargu": 3772,
      "joy": 3773,
      "inated": 3774,
      "ĠProfessor": 3775,
      "Ġeducational": 3776,
      "Ġvict": 3777,
      "Ġsand": 3778,
      "ingu": 3779,
      "Ġsamples": 3780,
      "Ġexhib": 3781,
      "Ġcolleag": 3782,
      "Ġsem": 3783,
      "Ġthinking": 3784,
      "Ġoffers": 3785,
      "Ġlaws": 3786,
      "ĠCour": 3787,
      "Ġcommunication": 3788,
      "eces": 3789,
      "Ġbran": 3790,
      "ĠEv": 3791,
      "ux": 3792,
      "Ġstructures": 3793,
      "Ġeggs": 3794,
      "Ġwaters": 3795,
      "Ġleaders": 3796,
      "Ġrules": 3797,
      "Ġauthors": 3798,
      "ota": 3799,
      "Ġmachine": 3800,
      "Ġenter": 3801,
      "22": 3802,
      "ĠDon": 3803,
      "Ġallowed": 3804,
      "Ġitems": 3805,
      "Ġenh": 3806,
      "Ġwatch": 3807,
      "Ġimportance": 3808,
      "ĠEast": 3809,
      "Ġpresident": 3810,
      "Ġcommercial": 3811,
      "abilities": 3812,
      "road": 3813,
      "Ġfactor": 3814,
      "ĠUp": 3815,
      "Ġemot": 3816,
      "ĠPat": 3817,
      "uit": 3818,
      "inese": 3819,
      "Ġtransl": 3820,
      "iverse": 3821,
      "ĠCD": 3822,
      "Ġadvant": 3823,
      "ĠLast": 3824,
      "Ġequal": 3825,
      "Ġplans": 3826,
      "Ġcateg": 3827,
      "Ġlimit": 3828,
      "Ġapply": 3829,
      "arge": 3830,
      "Ġpurch": 3831,
      "ding": 3832,
      "Ġceleb": 3833,
      "Ġappe": 3834,
      "Ġcry": 3835,
      "Ġmilk": 3836,
      "ormally": 3837,
      "ĠMD": 3838,
      "co": 3839,
      "Ġseparate": 3840,
      "Ġclassroom": 3841,
      "ĠDire": 3842,
      "Ġchance": 3843,
      "Ġrepe": 3844,
      "Ġgalax": 3845,
      "fort": 3846,
      "Ġinches": 3847,
      "Ġdidn": 3848,
      "Ġoverall": 3849,
      "roph": 3850,
      "Ġprofessional": 3851,
      "Ġfeature": 3852,
      "Ġengineering": 3853,
      "Ġpractices": 3854,
      "Ġbright": 3855,
      "elesc": 3856,
      "ĠEnergy": 3857,
      "Ġclick": 3858,
      "Ġdetails": 3859,
      "Ġestimated": 3860,
      "rim": 3861,
      "elines": 3862,
      "Ġhabitat": 3863,
      "Ġshall": 3864,
      "Ġchoose": 3865,
      "Ġfresh": 3866,
      "Ġexperts": 3867,
      "olic": 3868,
      "Ġbeyond": 3869,
      "Ġreprodu": 3870,
      "Ġconservation": 3871,
      "Ġadult": 3872,
      "ĠUnion": 3873,
      "Ġsquare": 3874,
      "oxide": 3875,
      "Ġfinan": 3876,
      "Ġ27": 3877,
      "Ġpresented": 3878,
      "Ġyellow": 3879,
      "Ġcoming": 3880,
      "Ġfair": 3881,
      "Ġpassed": 3882,
      "Ġ28": 3883,
      "Ġefficient": 3884,
      "rief": 3885,
      "Ġalg": 3886,
      "Ġcomplic": 3887,
      "ĠToday": 3888,
      "ĠLet": 3889,
      "omas": 3890,
      "Ġwoman": 3891,
      "aced": 3892,
      "Ġparticles": 3893,
      "Ġperformed": 3894,
      "aped": 3895,
      "Ġworked": 3896,
      "Ġfriends": 3897,
      "acific": 3898,
      "ĠPage": 3899,
      "Ġdecision": 3900,
      "opes": 3901,
      "ĠTwo": 3902,
      "Ch": 3903,
      "Ġexplore": 3904,
      "Ġpi": 3905,
      "Ġanti": 3906,
      "Ġneigh": 3907,
      "omic": 3908,
      "ibly": 3909,
      "ado": 3910,
      "Ġremove": 3911,
      "ĠFlorida": 3912,
      "Ġprocedure": 3913,
      "Ġcomponents": 3914,
      "Ġremoved": 3915,
      "ĠTechnology": 3916,
      "Ġgold": 3917,
      "Ġeventually": 3918,
      "Ġnutri": 3919,
      "Ġoutput": 3920,
      "stitution": 3921,
      "lin": 3922,
      "Ġmom": 3923,
      "ĠJames": 3924,
      "ĠFood": 3925,
      "Ġagree": 3926,
      "Ġgir": 3927,
      "ĠFrench": 3928,
      "ĠFin": 3929,
      "Ġhistorical": 3930,
      "Ġalone": 3931,
      "Ġtechnique": 3932,
      "Ġdownload": 3933,
      "Ġspot": 3934,
      "Ġmoon": 3935,
      "Ġfigure": 3936,
      "Ġcausing": 3937,
      "Ġformer": 3938,
      "Ġ193": 3939,
      "efin": 3940,
      "Ġcovered": 3941,
      "tm": 3942,
      "Ġsituation": 3943,
      "Ġadop": 3944,
      "atin": 3945,
      "Ġrat": 3946,
      "Ġ80": 3947,
      "omb": 3948,
      "Ġconstant": 3949,
      "Ġmale": 3950,
      "Ġinfected": 3951,
      "If": 3952,
      "Ġson": 3953,
      "Ġtrack": 3954,
      "antic": 3955,
      "ĠMus": 3956,
      "Ġclos": 3957,
      "Ġlayer": 3958,
      "edic": 3959,
      "Ġinfluence": 3960,
      "Ġheavy": 3961,
      "ĠDate": 3962,
      "Ġoperations": 3963,
      "umn": 3964,
      "Ġmathemat": 3965,
      "Ġpowerful": 3966,
      "iable": 3967,
      "rog": 3968,
      "ĠPlease": 3969,
      "ken": 3970,
      "ĠStand": 3971,
      "Ġ26": 3972,
      "ĠLake": 3973,
      "Ġsouthern": 3974,
      "Ġ186": 3975,
      "Ġcollabor": 3976,
      "Ġdigital": 3977,
      "Ġinput": 3978,
      "Ġnote": 3979,
      "Ġcompar": 3980,
      "ĠChinese": 3981,
      "Ġbird": 3982,
      "Ġvirt": 3983,
      "Ġmoved": 3984,
      "Ġabsor": 3985,
      "Ġexisting": 3986,
      "AM": 3987,
      "Ġstore": 3988,
      "akers": 3989,
      "Ġglass": 3990,
      "ĠFind": 3991,
      "24": 3992,
      "Ġopportunity": 3993,
      "Ġburn": 3994,
      "enty": 3995,
      "Ġimag": 3996,
      "Ġexposed": 3997,
      "Ġnorthern": 3998,
      "ĠData": 3999,
      "RI": 4000,
      "plant": 4001,
      "What": 4002,
      "Ġincor": 4003,
      "ĠNote": 4004,
      "Ġstim": 4005,
      "Ġmedications": 4006,
      "Ġreasons": 4007,
      "yd": 4008,
      "Ġmal": 4009,
      "Ġleave": 4010,
      "tical": 4011,
      "Ġforces": 4012,
      "Ġvary": 4013,
      "Ġdefined": 4014,
      "Ġiron": 4015,
      "Ġdeal": 4016,
      "Ġofficials": 4017,
      "rael": 4018,
      "reet": 4019,
      "ĠCoun": 4020,
      "Ġacqu": 4021,
      "Ġkil": 4022,
      "Ġchemicals": 4023,
      "ĠRem": 4024,
      "Ġsnow": 4025,
      "ĠWindows": 4026,
      "Ġdecades": 4027,
      "ĠTest": 4028,
      "ĠMexico": 4029,
      "Ġdistribution": 4030,
      "Ġdemand": 4031,
      "Ġbeaut": 4032,
      "Ġoffice": 4033,
      "Ġdrive": 4034,
      "OT": 4035,
      "Ġstatement": 4036,
      "Ġorganization": 4037,
      "Ġmag": 4038,
      "Ġmessage": 4039,
      "rant": 4040,
      "ĠIsland": 4041,
      "Ġannual": 4042,
      "ĠResearchers": 4043,
      "Ġparent": 4044,
      "resp": 4045,
      "uth": 4046,
      "Ġfoss": 4047,
      "ought": 4048,
      "isher": 4049,
      "ares": 4050,
      "Ġenjoy": 4051,
      "rab": 4052,
      "aid": 4053,
      "ev": 4054,
      "ped": 4055,
      "Ġdiagnosis": 4056,
      "Ġcand": 4057,
      "Ġ2004": 4058,
      "enge": 4059,
      "Ġbound": 4060,
      "Ġgets": 4061,
      "atically": 4062,
      "Ġsyndrome": 4063,
      "Ġcustom": 4064,
      "RE": 4065,
      "Ġthick": 4066,
      "Ġpresence": 4067,
      "Ġchronic": 4068,
      "Ġinjury": 4069,
      "Ġsurpr": 4070,
      "Ġcolleagues": 4071,
      "Ġteach": 4072,
      "Ġmamm": 4073,
      "Ġpow": 4074,
      "Ġhospital": 4075,
      "ĠCancer": 4076,
      "Ġextremely": 4077,
      "ĠGerman": 4078,
      "Ġrule": 4079,
      "Ġtested": 4080,
      "Ġ195": 4081,
      "asc": 4082,
      "Ġcombination": 4083,
      "ĠRober": 4084,
      "Ġboard": 4085,
      "ĠReview": 4086,
      "Ġstatus": 4087,
      "Ġnothing": 4088,
      "Ġrich": 4089,
      "Ġstru": 4090,
      "ĠAng": 4091,
      "ynam": 4092,
      "met": 4093,
      "Ġeverything": 4094,
      "ĠLaw": 4095,
      "uild": 4096,
      "Ġhorm": 4097,
      "90": 4098,
      "ĠHistor": 4099,
      "Ġhaz": 4100,
      "ĠVirginia": 4101,
      "Ġstaff": 4102,
      "apers": 4103,
      "ĠAv": 4104,
      "Ġstem": 4105,
      "Ġsch": 4106,
      "Ġrecommended": 4107,
      "Ġreserv": 4108,
      "Ġinitial": 4109,
      "Ġdivid": 4110,
      "ĠCivil": 4111,
      "ĠDist": 4112,
      "ML": 4113,
      "ĠAtl": 4114,
      "Ġcultural": 4115,
      "23": 4116,
      "Ġobserved": 4117,
      "gra": 4118,
      "Ġtrig": 4119,
      "Ġwond": 4120,
      "Ġtrade": 4121,
      "ĠMat": 4122,
      "ĠFoundation": 4123,
      "Ġmetal": 4124,
      "Ġcitiz": 4125,
      "ĠJewish": 4126,
      "zing": 4127,
      "pir": 4128,
      "phas": 4129,
      "Ġtrou": 4130,
      "ferences": 4131,
      "Ġelectricity": 4132,
      "Ġoptions": 4133,
      "Ġtransfer": 4134,
      "ĠPacific": 4135,
      "Ġsentences": 4136,
      "Ġstrength": 4137,
      "ĠDisc": 4138,
      "osystem": 4139,
      "ĠControl": 4140,
      "cking": 4141,
      "Ġcycle": 4142,
      "ĠBas": 4143,
      "Ġtopic": 4144,
      "Ġamounts": 4145,
      "eed": 4146,
      "Ġsignal": 4147,
      "Ġhighest": 4148,
      "Ġcollected": 4149,
      "70": 4150,
      "Ġcontinued": 4151,
      "Ġchanging": 4152,
      "icip": 4153,
      "cast": 4154,
      "Ġfully": 4155,
      "Ġhon": 4156,
      "Ġreplace": 4157,
      "Ġperhaps": 4158,
      "Ġinstance": 4159,
      "ribe": 4160,
      "Ġbackground": 4161,
      "Ġhear": 4162,
      "Ġparticipants": 4163,
      "astern": 4164,
      "Ġnutrition": 4165,
      "Ġhuge": 4166,
      "Ġstorage": 4167,
      "nam": 4168,
      "ĠWestern": 4169,
      "Ġmis": 4170,
      "board": 4171,
      "Ġflowers": 4172,
      "SS": 4173,
      "Ġmath": 4174,
      "tee": 4175,
      "ĠHel": 4176,
      "Ġrang": 4177,
      "Ġstarting": 4178,
      "Ġbehavi": 4179,
      "raction": 4180,
      "Ġbed": 4181,
      "Ġformat": 4182,
      "Ġbelieved": 4183,
      "ollow": 4184,
      "Ġoccup": 4185,
      "ĠUN": 4186,
      "Ġforward": 4187,
      "Ġremember": 4188,
      "Ġ2003": 4189,
      "ĠGeorge": 4190,
      "ĠDisease": 4191,
      "ĠHuman": 4192,
      "Ġlooks": 4193,
      "pat": 4194,
      "Ġrisks": 4195,
      ".|": 4196,
      "ulum": 4197,
      "Ġdri": 4198,
      "Ġattract": 4199,
      "Ġlinked": 4200,
      "Ġpollution": 4201,
      ":<": 4202,
      "normal": 4203,
      "Ġspacecraft": 4204,
      "Ġorganic": 4205,
      "uses": 4206,
      "Ġimmediately": 4207,
      "Ġvision": 4208,
      "ĠIsrael": 4209,
      "Ġgiving": 4210,
      "Ġresistance": 4211,
      "Ġconsequ": 4212,
      "cont": 4213,
      "ĠTH": 4214,
      "Ġsave": 4215,
      "ĠEngine": 4216,
      "aks": 4217,
      "Ġfather": 4218,
      "ĠPen": 4219,
      "Ġdie": 4220,
      "ĠMart": 4221,
      "ĠBra": 4222,
      "Ġtechnologies": 4223,
      "rolog": 4224,
      "Ġdust": 4225,
      "Ġthin": 4226,
      "Ġtreatments": 4227,
      "Ġhappen": 4228,
      "Ġfluid": 4229,
      "rum": 4230,
      "iology": 4231,
      "ping": 4232,
      "Ġplanning": 4233,
      "Ġemergency": 4234,
      "ĠSer": 4235,
      "Ġcontract": 4236,
      "ondon": 4237,
      "Ġvolume": 4238,
      "ĠOrgan": 4239,
      "obile": 4240,
      "olved": 4241,
      "ously": 4242,
      "Ġround": 4243,
      "Ġfear": 4244,
      "ara": 4245,
      "Ġcoord": 4246,
      "Ġlaboratory": 4247,
      "Ġinterested": 4248,
      "ĠIts": 4249,
      "Ġing": 4250,
      "Ġkilled": 4251,
      "Ġfrequently": 4252,
      "key": 4253,
      "Ġpreviously": 4254,
      "ams": 4255,
      "ĠClass": 4256,
      "Ġjud": 4257,
      "ald": 4258,
      "Ġactual": 4259,
      "ĠTreat": 4260,
      "gypt": 4261,
      "Ġliver": 4262,
      "ĠPhot": 4263,
      "ĠRich": 4264,
      "ĠLaboratory": 4265,
      "Ġlibrary": 4266,
      "Ġhomes": 4267,
      "Ġvitamin": 4268,
      "Ġsed": 4269,
      "Ġbiological": 4270,
      "Ġunits": 4271,
      "Ġresulting": 4272,
      "ĠOffice": 4273,
      "Ġpric": 4274,
      "Ġstyle": 4275,
      "Ġcharacteristics": 4276,
      "unction": 4277,
      "ĠBay": 4278,
      "ĠVol": 4279,
      "Ġhit": 4280,
      "sec": 4281,
      "Ġstories": 4282,
      "Ġsignificantly": 4283,
      "itors": 4284,
      "Ġelectrical": 4285,
      "itable": 4286,
      "ifically": 4287,
      "Ġlesson": 4288,
      "ĠMass": 4289,
      "Ġtoxic": 4290,
      "Ġreligious": 4291,
      "Ġfailure": 4292,
      "Ġclasses": 4293,
      "ville": 4294,
      "''": 4295,
      "Ġeasier": 4296,
      "Ġnotes": 4297,
      "Ġstation": 4298,
      "umber": 4299,
      "Ġnar": 4300,
      "wood": 4301,
      "Ġseeds": 4302,
      "uration": 4303,
      "Ġmajority": 4304,
      "ĠResources": 4305,
      "EL": 4306,
      "men": 4307,
      "Ġcarried": 4308,
      "otic": 4309,
      "Ġexcess": 4310,
      "Ġcoal": 4311,
      "ĠOh": 4312,
      "Ġ90": 4313,
      "Ġwest": 4314,
      "Ġeveryone": 4315,
      "Ġeffic": 4316,
      "ĠSpec": 4317,
      "Ġnit": 4318,
      "Ġarticles": 4319,
      "Ġmel": 4320,
      "Ġnoted": 4321,
      "Ġpregnancy": 4322,
      "Ġexactly": 4323,
      "raw": 4324,
      "Ġdram": 4325,
      "Ġhour": 4326,
      "ira": 4327,
      "Ġeconomy": 4328,
      "Ġstrategies": 4329,
      "tered": 4330,
      "aign": 4331,
      "ĠCarolina": 4332,
      "Ġintroduced": 4333,
      "Ġletters": 4334,
      "ĠLou": 4335,
      "Ġfinancial": 4336,
      "Ġchoice": 4337,
      "Ġfavor": 4338,
      "Ġdiscussion": 4339,
      "There": 4340,
      "Ġarchitect": 4341,
      "ĠEgypt": 4342,
      "Ġdestroy": 4343,
      "ias": 4344,
      "Ġcollege": 4345,
      "Ġteeth": 4346,
      "Ġlived": 4347,
      "Ġassum": 4348,
      "Ġiniti": 4349,
      "Ġship": 4350,
      "esity": 4351,
      "Ġwidely": 4352,
      "oty": 4353,
      "Ġcrops": 4354,
      "ĠGet": 4355,
      "Ġ70": 4356,
      "Ġgeneration": 4357,
      "Ġjoint": 4358,
      "Ġconsumption": 4359,
      "Ġlearned": 4360,
      "Ġgave": 4361,
      "ĠWhite": 4362,
      "Ġorbit": 4363,
      "Ġcomprehens": 4364,
      "Ġvolunt": 4365,
      "htm": 4366,
      "Ġdetailed": 4367,
      "Ġfine": 4368,
      "ĠST": 4369,
      "za": 4370,
      "ĠBoth": 4371,
      "Ġ190": 4372,
      "Ġalternative": 4373,
      "Ġsynt": 4374,
      "ensus": 4375,
      "ĠAgricult": 4376,
      "ĠAst": 4377,
      "oper": 4378,
      "ocal": 4379,
      "Ġtowards": 4380,
      "ience": 4381,
      "Ġhur": 4382,
      "Ġmeeting": 4383,
      "aste": 4384,
      "olid": 4385,
      "ĠAcadem": 4386,
      "Ġacadem": 4387,
      "DF": 4388,
      "rie": 4389,
      "gov": 4390,
      "wards": 4391,
      "Ġdiscovery": 4392,
      "Ġconfirm": 4393,
      "Ġwildlife": 4394,
      "ĠDevelopment": 4395,
      "icon": 4396,
      "Ġindicate": 4397,
      "Ġdepression": 4398,
      "Ġstring": 4399,
      "vision": 4400,
      "ĠEvery": 4401,
      "ĠColor": 4402,
      "asion": 4403,
      ">-": 4404,
      "Ġcities": 4405,
      "ĠVis": 4406,
      "Ġ2001": 4407,
      "Ġrequirements": 4408,
      "Ġstudied": 4409,
      "Ġanyone": 4410,
      "Ġplastic": 4411,
      "Ġoperation": 4412,
      "ĠCle": 4413,
      "Ġadvanced": 4414,
      "Ġserve": 4415,
      "Ġweak": 4416,
      "Ġlatest": 4417,
      "Ġcompleted": 4418,
      "ĠAny": 4419,
      "Ġoccurred": 4420,
      "Ġflight": 4421,
      "RO": 4422,
      "Ġdogs": 4423,
      "Ġtiny": 4424,
      "Ġ29": 4425,
      "Ġindex": 4426,
      "Ġliquid": 4427,
      "Ġconcepts": 4428,
      "Ġdetermined": 4429,
      "Ġheight": 4430,
      "Ġallerg": 4431,
      "Ġdefinition": 4432,
      "Ġpieces": 4433,
      "AP": 4434,
      "onds": 4435,
      "Ġvisible": 4436,
      "illing": 4437,
      "Ġcontaining": 4438,
      "ented": 4439,
      "ball": 4440,
      "Ġdro": 4441,
      "Ġhappens": 4442,
      "ocr": 4443,
      "Ġorganizations": 4444,
      "ĠJe": 4445,
      "ĠChurch": 4446,
      "cules": 4447,
      "Ġwire": 4448,
      "As": 4449,
      "________": 4450,
      "ributed": 4451,
      "cip": 4452,
      "roup": 4453,
      "ndom": 4454,
      "Ġcapital": 4455,
      "Ġhousehold": 4456,
      "active": 4457,
      "Ġpartners": 4458,
      "ĠFam": 4459,
      "Ġdangerous": 4460,
      "Ġshowing": 4461,
      "Ġsolid": 4462,
      "Ġgrade": 4463,
      "Ġtask": 4464,
      "Ġbalance": 4465,
      "poses": 4466,
      "Ġbuildings": 4467,
      "iled": 4468,
      "alog": 4469,
      "Ġprice": 4470,
      "BC": 4471,
      "ĠLondon": 4472,
      "Ġwalk": 4473,
      "ĠRoman": 4474,
      "Ġlegal": 4475,
      "Ġdescribe": 4476,
      "example": 4477,
      "ĠChristian": 4478,
      "'d": 4479,
      "Ġlegisl": 4480,
      "Ġwrong": 4481,
      "iding": 4482,
      "order": 4483,
      "Ġmeasured": 4484,
      "Ġaqu": 4485,
      "ags": 4486,
      "ĠAccess": 4487,
      "ĠJapanese": 4488,
      "Ġking": 4489,
      "Ġfilm": 4490,
      "Ġfrequency": 4491,
      "force": 4492,
      "ĠSum": 4493,
      "Ġcore": 4494,
      "ĠMake": 4495,
      "Ġfix": 4496,
      "ses": 4497,
      "ĠLa": 4498,
      "Ġdepending": 4499,
      "Ġpick": 4500,
      "Ġbegins": 4501,
      "Ġgames": 4502,
      "EM": 4503,
      "oice": 4504,
      "fish": 4505,
      ")<": 4506,
      "ĠDiv": 4507,
      "ĠStudy": 4508,
      "ĠElect": 4509,
      "rosc": 4510,
      "Ġserver": 4511,
      "Ġconflic": 4512,
      "iling": 4513,
      "Ġoperating": 4514,
      "Ġsalt": 4515,
      "Ġassessment": 4516,
      "?\"": 4517,
      "Ġindustrial": 4518,
      "ĠPub": 4519,
      "Ġformation": 4520,
      "rane": 4521,
      "RC": 4522,
      "Ġfaster": 4523,
      "eters": 4524,
      "Ġdefic": 4525,
      "Ġshar": 4526,
      "Ġbecoming": 4527,
      "Ġinvolves": 4528,
      "ellig": 4529,
      "Ġyourself": 4530,
      "Ġperfect": 4531,
      "Ġturned": 4532,
      "ĠIll": 4533,
      "rupt": 4534,
      "cipl": 4535,
      "Ġcontext": 4536,
      "ded": 4537,
      "Ġcapacity": 4538,
      "Ġphen": 4539,
      "gl": 4540,
      "Ġwarming": 4541,
      "Ġpul": 4542,
      "Ġcere": 4543,
      "ĠSciences": 4544,
      "Ġhem": 4545,
      "Ġhelped": 4546,
      "Ġpresc": 4547,
      "ĠCouncil": 4548,
      "Ġmostly": 4549,
      "Ġages": 4550,
      "Ġfriend": 4551,
      "Ġfing": 4552,
      "ĠLand": 4553,
      "change": 4554,
      "Ġdiscover": 4555,
      "enth": 4556,
      "Ġfa": 4557,
      "ternal": 4558,
      "ago": 4559,
      "Ġemphas": 4560,
      "Ġdeaths": 4561,
      "Ġmention": 4562,
      "apes": 4563,
      "state": 4564,
      "Ġdrinking": 4565,
      "ras": 4566,
      "Ġserved": 4567,
      "ĠMil": 4568,
      "Ġprocessing": 4569,
      "Ġinsects": 4570,
      "Ġ2002": 4571,
      "Ġprepar": 4572,
      "hma": 4573,
      "Ġsend": 4574,
      "ĠRad": 4575,
      "Ġnovel": 4576,
      "Ġinform": 4577,
      "Ġfly": 4578,
      "Ġinstrument": 4579,
      "Ġlabor": 4580,
      "Ġsupported": 4581,
      "ĠMark": 4582,
      "ressive": 4583,
      "Ġurban": 4584,
      "Ġsort": 4585,
      "Ġcomputers": 4586,
      "Ġspeech": 4587,
      "ek": 4588,
      "Ġtail": 4589,
      "Ġproteins": 4590,
      "alled": 4591,
      "Ġpret": 4592,
      "ĠStep": 4593,
      "Ġmulti": 4594,
      "Ġgrav": 4595,
      "ĠDem": 4596,
      "Ġgoals": 4597,
      "Ġesc": 4598,
      "ĠMr": 4599,
      "Ġden": 4600,
      "Ġlandsc": 4601,
      "Ġmaps": 4602,
      "Ġsetting": 4603,
      "Ġ2014": 4604,
      "alle": 4605,
      "itz": 4606,
      "Ġbrown": 4607,
      "nel": 4608,
      "ession": 4609,
      "Ġbodies": 4610,
      "unk": 4611,
      "Ġreducing": 4612,
      "Ġslightly": 4613,
      "Ġeast": 4614,
      "lim": 4615,
      "Ġannoun": 4616,
      "aint": 4617,
      "Ġexperiments": 4618,
      "Ġdistinct": 4619,
      "Ġdocuments": 4620,
      "ees": 4621,
      "Ġdouble": 4622,
      "pen": 4623,
      "van": 4624,
      "Ġbill": 4625,
      "Ġfarmers": 4626,
      "ĠMor": 4627,
      "ĠRet": 4628,
      "ĠLearn": 4629,
      "ĠRobert": 4630,
      "ĠExper": 4631,
      "ĠSen": 4632,
      "Ġmotor": 4633,
      "ĠType": 4634,
      "Ġminor": 4635,
      "Ġinternal": 4636,
      "Ġinflamm": 4637,
      "ĠFederal": 4638,
      "Ġreaction": 4639,
      "Ġvegetables": 4640,
      "ĠMac": 4641,
      "field": 4642,
      "Ġecosystem": 4643,
      "Ġonto": 4644,
      "Ġearthqu": 4645,
      "Ġcrop": 4646,
      "Ġhyper": 4647,
      "Ġtopics": 4648,
      "Ġfamous": 4649,
      "Ġrace": 4650,
      "Ġmeat": 4651,
      "Ġdivers": 4652,
      "ĠAdminist": 4653,
      "Ġpromot": 4654,
      "Ġprimarily": 4655,
      "Ġshell": 4656,
      "Ġisol": 4657,
      "ĠOut": 4658,
      "Ġantibiot": 4659,
      "Ġvehicle": 4660,
      "Ġmonitoring": 4661,
      "fl": 4662,
      "Ġmagnetic": 4663,
      "ĠNatural": 4664,
      "Ġmolecules": 4665,
      "ropical": 4666,
      "Ġmoist": 4667,
      "Ġpolic": 4668,
      "iring": 4669,
      "Ġlanguages": 4670,
      "Ġmotion": 4671,
      "icks": 4672,
      "Ġvill": 4673,
      "ĠCommon": 4674,
      "Ġrandom": 4675,
      "ĠJer": 4676,
      "ĠMet": 4677,
      "kin": 4678,
      "Ġagency": 4679,
      "199": 4680,
      "stract": 4681,
      "Ġflat": 4682,
      "pective": 4683,
      "Ġquar": 4684,
      "Ġelimin": 4685,
      "Ġencourage": 4686,
      "ĠLike": 4687,
      "que": 4688,
      "othes": 4689,
      "Ġsexual": 4690,
      "26": 4691,
      "Ġagricultural": 4692,
      "ĠScientists": 4693,
      "rm": 4694,
      "Ġspent": 4695,
      "Ġpip": 4696,
      "Ġworth": 4697,
      "Ġexpert": 4698,
      "Ġselected": 4699,
      "Ġprepared": 4700,
      "Ġpictures": 4701,
      "Ġimproved": 4702,
      "ica": 4703,
      "Ġbattle": 4704,
      "uing": 4705,
      "roid": 4706,
      "Ġdoctors": 4707,
      "acters": 4708,
      ">|": 4709,
      "Ġwindow": 4710,
      "Ġdioxide": 4711,
      "riculum": 4712,
      "pal": 4713,
      "works": 4714,
      "ta": 4715,
      "29": 4716,
      "Ġban": 4717,
      "oom": 4718,
      "Ġinh": 4719,
      "27": 4720,
      "Ġhundreds": 4721,
      "28": 4722,
      "Ġconcern": 4723,
      "Ġincome": 4724,
      "Ġinject": 4725,
      "Ġsurrounding": 4726,
      "Ġcounty": 4727,
      "Ġinvolve": 4728,
      "ĠAsia": 4729,
      "Ġsatellite": 4730,
      "Ġtrend": 4731,
      "Ġadjust": 4732,
      "ediatric": 4733,
      "ĠOcean": 4734,
      "Ġwww": 4735,
      "edom": 4736,
      "ĠGermany": 4737,
      "Ġexecut": 4738,
      "celer": 4739,
      "Ġready": 4740,
      "des": 4741,
      "Ġprefer": 4742,
      "ressed": 4743,
      "ona": 4744,
      "Ġextensive": 4745,
      "ĠWomen": 4746,
      "Ġ35": 4747,
      "Ġvul": 4748,
      "Ġnumerous": 4749,
      "IDS": 4750,
      "Ġopportunities": 4751,
      "inate": 4752,
      "Ġagencies": 4753,
      "ael": 4754,
      "ĠNav": 4755,
      "Ġwin": 4756,
      "Ġpark": 4757,
      "ĠPort": 4758,
      "Ġble": 4759,
      "earch": 4760,
      "Ġpal": 4761,
      "Ġlooked": 4762,
      "Ġgrant": 4763,
      "Ġnerv": 4764,
      "Ġdecisions": 4765,
      "Ġclim": 4766,
      "gal": 4767,
      "Ġsky": 4768,
      "Ġhelping": 4769,
      "Ġconnection": 4770,
      "Ġintended": 4771,
      "Ġproperly": 4772,
      "ĠPal": 4773,
      "Ġleaf": 4774,
      "eties": 4775,
      "rick": 4776,
      "Ġgall": 4777,
      "Ġsyn": 4778,
      "Ġcardi": 4779,
      "Ġconvers": 4780,
      "Ġdiagnosed": 4781,
      "rating": 4782,
      "Ġnormally": 4783,
      "ĠMem": 4784,
      "Ġaffects": 4785,
      "Ġmoment": 4786,
      "ameter": 4787,
      "Ġbones": 4788,
      "Ġaim": 4789,
      "Ġcomment": 4790,
      "ĠExt": 4791,
      "anish": 4792,
      "Ġchallenge": 4793,
      "ĠBook": 4794,
      "elescope": 4795,
      "Ġexplains": 4796,
      "Ġvariable": 4797,
      "Ġisland": 4798,
      "ĠTop": 4799,
      "ĠThomas": 4800,
      "Ġoption": 4801,
      "Ġmuscles": 4802,
      "Ġtechnical": 4803,
      "Ġdoll": 4804,
      "Ġagg": 4805,
      "Ġrecorded": 4806,
      "Ġpotentially": 4807,
      "mark": 4808,
      "iance": 4809,
      "ĠMicro": 4810,
      "ĠHome": 4811,
      "lam": 4812,
      "Ġactions": 4813,
      "ĠJes": 4814,
      "Ġbrief": 4815,
      "Ġwestern": 4816,
      "Ġprocedures": 4817,
      "tion": 4818,
      "Ġincorpor": 4819,
      "ĠAgency": 4820,
      "ĠForest": 4821,
      "Ġcamera": 4822,
      "Ġmanufacture": 4823,
      "OU": 4824,
      "aska": 4825,
      "ĠManagement": 4826,
      "Ġrow": 4827,
      "oughly": 4828,
      "do": 4829,
      "ĠBel": 4830,
      "eline": 4831,
      "Ġ1990": 4832,
      "Ġconclud": 4833,
      "ION": 4834,
      "Ġportion": 4835,
      "heric": 4836,
      "Ġcounter": 4837,
      "Ġwaves": 4838,
      "Ġord": 4839,
      "teries": 4840,
      "apping": 4841,
      "cest": 4842,
      "ĠThus": 4843,
      "Ġscan": 4844,
      "Ġindependent": 4845,
      "Ġmarine": 4846,
      "Ġsusp": 4847,
      "Ġadapt": 4848,
      "Ġchurch": 4849,
      "Ġphysics": 4850,
      "Ġlisted": 4851,
      "ansas": 4852,
      "Ġinterpret": 4853,
      "clus": 4854,
      "ĠEconom": 4855,
      "Ġaccurate": 4856,
      "vert": 4857,
      "Ġconcerns": 4858,
      "Ġliterature": 4859,
      "cious": 4860,
      "Ġcontrast": 4861,
      "col": 4862,
      "Ġforeign": 4863,
      "Ġkinds": 4864,
      "areness": 4865,
      "Ġcolors": 4866,
      "Ġcombined": 4867,
      "ĠBack": 4868,
      "21": 4869,
      "Ġaid": 4870,
      "ĠOld": 4871,
      "porary": 4872,
      "cium": 4873,
      "ander": 4874,
      "Ġclust": 4875,
      "Ġroots": 4876,
      "ested": 4877,
      "ĠTer": 4878,
      "Ġreturned": 4879,
      "Ġcitizens": 4880,
      "Ġaspects": 4881,
      "Ġphotograph": 4882,
      "Ġreached": 4883,
      "Ġhearing": 4884,
      "Ġcharacters": 4885,
      "An": 4886,
      "ortunately": 4887,
      "Ġscen": 4888,
      "Ġconnected": 4889,
      "Ġign": 4890,
      "Al": 4891,
      "Ġstraight": 4892,
      "Ġfertil": 4893,
      "Ġfundam": 4894,
      "Ġcorresp": 4895,
      "ĠGovernment": 4896,
      "mary": 4897,
      "ĠSource": 4898,
      "ĠRev": 4899,
      "ĠUK": 4900,
      "ĠAD": 4901,
      "iful": 4902,
      "Ġcontinues": 4903,
      "EP": 4904,
      "ING": 4905,
      "asks": 4906,
      "Ġexplan": 4907,
      "ache": 4908,
      "Ġhimself": 4909,
      "Ġphase": 4910,
      "Ġmice": 4911,
      "ĠThose": 4912,
      "Ġkept": 4913,
      "Ġstroke": 4914,
      "Ġconsult": 4915,
      "rants": 4916,
      "othe": 4917,
      "Ġexpression": 4918,
      "ĠAdv": 4919,
      "ymph": 4920,
      "Ġvot": 4921,
      "Ġhom": 4922,
      "Ġconsists": 4923,
      "Ġphone": 4924,
      "Ġadding": 4925,
      "ĠSte": 4926,
      "Ġroll": 4927,
      "Ġstored": 4928,
      "ĠSam": 4929,
      "Ġcourt": 4930,
      "Ġsen": 4931,
      "ĠFrance": 4932,
      "ĠWell": 4933,
      "Ġperiods": 4934,
      "ĠOhio": 4935,
      "Ġelev": 4936,
      "osite": 4937,
      "AD": 4938,
      "Ġband": 4939,
      "Ġbuy": 4940,
      "Ġmillions": 4941,
      "ĠMain": 4942,
      "ĠStat": 4943,
      "Ġuniverse": 4944,
      "Ġattacks": 4945,
      "Ġgrown": 4946,
      "ĠList": 4947,
      "ishes": 4948,
      "Ġchallenges": 4949,
      "ĠConf": 4950,
      "Ġlic": 4951,
      "Ġnav": 4952,
      "500": 4953,
      "Ġdrop": 4954,
      "Ġinstruction": 4955,
      "Ġseg": 4956,
      "Ġcharge": 4957,
      ".\"<": 4958,
      "Ġassist": 4959,
      "rier": 4960,
      "Ġadvantage": 4961,
      "ĠLouis": 4962,
      "ulin": 4963,
      "Ġhole": 4964,
      "ĠHen": 4965,
      "Ġtips": 4966,
      "ĠSmith": 4967,
      "Ġreferred": 4968,
      "Ġsequence": 4969,
      "ifying": 4970,
      "ĠIS": 4971,
      "Ġ||": 4972,
      "ĠCentral": 4973,
      "ascular": 4974,
      "Ġwanted": 4975,
      "omach": 4976,
      "Ġharvest": 4977,
      "mat": 4978,
      "Ġotherwise": 4979,
      "imer": 4980,
      "fall": 4981,
      "berg": 4982,
      "Ġcomponent": 4983,
      "ĠBen": 4984,
      "Ġopin": 4985,
      "Ġdynam": 4986,
      "ods": 4987,
      "II": 4988,
      "Ġclearly": 4989,
      "Ġabnormal": 4990,
      "Ġnarrow": 4991,
      "ĠDesc": 4992,
      "Ġpurposes": 4993,
      "ĠBritain": 4994,
      "ĠSocial": 4995,
      "osc": 4996,
      "ogle": 4997,
      "Ġqual": 4998,
      "olester": 4999,
      "ĠFre": 5000,
      "ĠAN": 5001,
      "faces": 5002,
      "Ġdrink": 5003,
      "Ġ189": 5004,
      "Ġprevention": 5005,
      "35": 5006,
      "Ġallowing": 5007,
      "ĠColumb": 5008,
      "ĠStudies": 5009,
      "Ġsac": 5010,
      "IL": 5011,
      "Ġbud": 5012,
      "Ġpig": 5013,
      "Ġregarding": 5014,
      "iveness": 5015,
      "ĠSupp": 5016,
      "ĠCommission": 5017,
      "Ġod": 5018,
      "Ġobesity": 5019,
      "lers": 5020,
      "och": 5021,
      "Ġsets": 5022,
      "Ġelectronic": 5023,
      "ĠChem": 5024,
      "Ġrapidly": 5025,
      "aser": 5026,
      "Ġdictionary": 5027,
      "Ġimmun": 5028,
      "Ġaware": 5029,
      "Ġchrom": 5030,
      "Ġ300": 5031,
      "Ġneut": 5032,
      "ĠQuest": 5033,
      "Ġsounds": 5034,
      "Ġhunt": 5035,
      "Ġtour": 5036,
      "ipped": 5037,
      "ĠAp": 5038,
      "mic": 5039,
      "hetic": 5040,
      "Ġju": 5041,
      "Ġchann": 5042,
      "Ġfloor": 5043,
      "More": 5044,
      "unch": 5045,
      "ĠDet": 5046,
      "flow": 5047,
      "ĠNature": 5048,
      "Ġprogramming": 5049,
      "ĠSea": 5050,
      "Ġpromote": 5051,
      "olesterol": 5052,
      "Ġchief": 5053,
      "Ġsmoking": 5054,
      "Ġforests": 5055,
      "Ġdepth": 5056,
      "You": 5057,
      "Ġperman": 5058,
      "Ġresidents": 5059,
      "ĠEnd": 5060,
      "Ġexcell": 5061,
      "Ġsick": 5062,
      "ĠJohns": 5063,
      "Ġcampaign": 5064,
      "Ġcredit": 5065,
      "Ġsides": 5066,
      "Ġvolcan": 5067,
      "Ġphil": 5068,
      "ixt": 5069,
      "Ġfacilities": 5070,
      "ĠDesign": 5071,
      "ĠMal": 5072,
      "ĠOnly": 5073,
      "Ġproposed": 5074,
      "ye": 5075,
      "ĠHol": 5076,
      "efinition": 5077,
      "Ġerror": 5078,
      "Ġexplained": 5079,
      "attle": 5080,
      "ibl": 5081,
      "Ġdoub": 5082,
      "Ġspl": 5083,
      "ĠFe": 5084,
      "udden": 5085,
      "Americ": 5086,
      "Ġsmoke": 5087,
      "onic": 5088,
      "Ġbelief": 5089,
      "ĠGreek": 5090,
      "urance": 5091,
      "Ġtypical": 5092,
      "Ġsuggested": 5093,
      "Ġbow": 5094,
      "word": 5095,
      "Ġedge": 5096,
      "Ġassemb": 5097,
      "down": 5098,
      "Ġrail": 5099,
      "ĠSl": 5100,
      "Ġ1999": 5101,
      "45": 5102,
      "ĠCare": 5103,
      "Ġvessels": 5104,
      "igation": 5105,
      "Ġaren": 5106,
      "ĠPaul": 5107,
      "Ġcontamin": 5108,
      "Ġgirls": 5109,
      "asive": 5110,
      "ĠSal": 5111,
      "ĠLin": 5112,
      "vin": 5113,
      "Ġtun": 5114,
      "care": 5115,
      "isp": 5116,
      "Ġwave": 5117,
      "ĠArmy": 5118,
      "Ġunus": 5119,
      "Ġsoci": 5120,
      "Ġelectron": 5121,
      "Ġpractical": 5122,
      "Ġlabel": 5123,
      "Ġplanets": 5124,
      "Ġguidelines": 5125,
      "Ġprices": 5126,
      "icial": 5127,
      "last": 5128,
      "cience": 5129,
      "Ġclosely": 5130,
      "win": 5131,
      "ears": 5132,
      "Ġstudying": 5133,
      "ĠKen": 5134,
      "Ġmedication": 5135,
      "Ġmassive": 5136,
      "Ġtrial": 5137,
      "Ġprovider": 5138,
      "Ġshut": 5139,
      "heast": 5140,
      "Ġimpacts": 5141,
      "Ġsurvival": 5142,
      "rete": 5143,
      "Ġflex": 5144,
      "Ġsong": 5145,
      "ĠValley": 5146,
      "Ġmaximum": 5147,
      "Ġaircraft": 5148,
      "Ġheard": 5149,
      "Ġleads": 5150,
      "Ġfamiliar": 5151,
      "ĠId": 5152,
      "ĠIN": 5153,
      "Ġsecret": 5154,
      "Ġpump": 5155,
      "Ġmort": 5156,
      "Ġefficiency": 5157,
      "ĠLong": 5158,
      "Ġraised": 5159,
      "Ġdepends": 5160,
      "ĠAustralian": 5161,
      "CC": 5162,
      "Ġorganisms": 5163,
      "Ġspirit": 5164,
      "ĠBet": 5165,
      "Ġobservations": 5166,
      "eria": 5167,
      "Ġstret": 5168,
      "ĠSouthern": 5169,
      "Ġsaying": 5170,
      "ĠFranc": 5171,
      "bing": 5172,
      "Ġlocations": 5173,
      "eor": 5174,
      "100": 5175,
      "Ġcontribute": 5176,
      "igan": 5177,
      "Ġfever": 5178,
      "ĠBur": 5179,
      "Ġvulner": 5180,
      "Ġcreation": 5181,
      "Ġuns": 5182,
      "Ġkidney": 5183,
      "zy": 5184,
      "Ġnerve": 5185,
      "med": 5186,
      "osion": 5187,
      "ĠLife": 5188,
      "ophy": 5189,
      "Ġstrugg": 5190,
      "Ġcontrolled": 5191,
      "Ġinnov": 5192,
      "angered": 5193,
      "ventional": 5194,
      "Ġmorning": 5195,
      "abil": 5196,
      "long": 5197,
      "Ġpounds": 5198,
      "ĠFort": 5199,
      "Ġtraffic": 5200,
      "ĠMiddle": 5201,
      "Ġfruits": 5202,
      "ognitive": 5203,
      "ĠView": 5204,
      "Ġobtained": 5205,
      "Ġshel": 5206,
      "bal": 5207,
      "Ġsubjects": 5208,
      "Ġstomach": 5209,
      "ĠTit": 5210,
      "Ġrepresents": 5211,
      "Ġkilomet": 5212,
      "33": 5213,
      "standing": 5214,
      "Ġreduction": 5215,
      "Ġcalls": 5216,
      "Ġpeace": 5217,
      "ĠLearning": 5218,
      "Ġplate": 5219,
      "75": 5220,
      "Ġpaint": 5221,
      "Ġtube": 5222,
      "fered": 5223,
      "Ġrocks": 5224,
      "Ġutil": 5225,
      "ĠJo": 5226,
      "Ġcloud": 5227,
      "Ġunknown": 5228,
      "Ġtwice": 5229,
      "Ġdrain": 5230,
      "Ġjour": 5231,
      "ĠBefore": 5232,
      "ĠRepublic": 5233,
      "ĠWik": 5234,
      "Ġfrag": 5235,
      "Ġunless": 5236,
      "ĠAddition": 5237,
      "Ġprinciples": 5238,
      "Ġastronom": 5239,
      "Ġeffectively": 5240,
      "ĠHave": 5241,
      "Ġimplic": 5242,
      "Ġinjuries": 5243,
      "ĠBer": 5244,
      "ĠSecond": 5245,
      "Ġfossil": 5246,
      "obe": 5247,
      "ĠNative": 5248,
      "ĠDef": 5249,
      "Ġsignals": 5250,
      "Ġacceler": 5251,
      "ĠWildlife": 5252,
      "Ġdisp": 5253,
      "Ġoriginally": 5254,
      "rays": 5255,
      "orith": 5256,
      "Ġhydrogen": 5257,
      "Ġremote": 5258,
      "emic": 5259,
      "xi": 5260,
      "Ġproducing": 5261,
      "Ġproduces": 5262,
      "Ġbabies": 5263,
      "Ġowners": 5264,
      "igen": 5265,
      "Ġancest": 5266,
      "Ġunivers": 5267,
      "Ġnutrients": 5268,
      "pping": 5269,
      "Ġdescribes": 5270,
      "ĠSurvey": 5271,
      "Ġnotice": 5272,
      "ĠGuide": 5273,
      "free": 5274,
      "osph": 5275,
      "MS": 5276,
      "riage": 5277,
      "Ġdin": 5278,
      "osen": 5279,
      "Ġexperienced": 5280,
      "Ġfocused": 5281,
      "Ġpretty": 5282,
      "ĠLatin": 5283,
      "uzz": 5284,
      "ĠAcademy": 5285,
      "aughter": 5286,
      "going": 5287,
      "Ġvent": 5288,
      "Ġworldwide": 5289,
      "Ġpil": 5290,
      "ĠWhere": 5291,
      "Ġdecrease": 5292,
      "Ġacademic": 5293,
      "riz": 5294,
      "ails": 5295,
      "ĠTeac": 5296,
      "ĠNetwork": 5297,
      "Ġanswers": 5298,
      "Ġrelationships": 5299,
      "Ġpolicies": 5300,
      "Ġmild": 5301,
      "Ġexperiences": 5302,
      "ini": 5303,
      "Ġobvious": 5304,
      "Ġdivided": 5305,
      "Ġfunding": 5306,
      "uke": 5307,
      "umin": 5308,
      "ĠPrevention": 5309,
      "weight": 5310,
      "Ġkeeping": 5311,
      "Ġdefinitions": 5312,
      "Ġcloth": 5313,
      "ĠAdministration": 5314,
      "nic": 5315,
      "Ġscreening": 5316,
      "ĠSat": 5317,
      "()": 5318,
      "Ġfle": 5319,
      "Ġmanage": 5320,
      "war": 5321,
      "Ġgreenhouse": 5322,
      "Ġgenerate": 5323,
      "ĠInstead": 5324,
      "ĠHaw": 5325,
      "Ġadvice": 5326,
      "ĠBre": 5327,
      "Ġsurvive": 5328,
      "Ġhelpful": 5329,
      "point": 5330,
      "Ġsod": 5331,
      "acts": 5332,
      "Ġdedic": 5333,
      "ĠProv": 5334,
      "Ġmetab": 5335,
      "Ġcomprehensive": 5336,
      "Ġaer": 5337,
      "inic": 5338,
      "ĠKeep": 5339,
      "ston": 5340,
      "Ġvast": 5341,
      "ĠPlant": 5342,
      "Ġdepos": 5343,
      "ception": 5344,
      "Ġasthma": 5345,
      "Ġneighbor": 5346,
      "kins": 5347,
      "Ġprofession": 5348,
      "Ġdisapp": 5349,
      "Ġfewer": 5350,
      "ĠCourt": 5351,
      "ructure": 5352,
      "Ġlegs": 5353,
      "place": 5354,
      "stream": 5355,
      "Ġtransform": 5356,
      "born": 5357,
      "ĠCre": 5358,
      "Ġmeasurements": 5359,
      "Ġrecy": 5360,
      "Ġgreatest": 5361,
      "Ġfeeding": 5362,
      "Ġveter": 5363,
      "irds": 5364,
      "ĠPC": 5365,
      "Ġrub": 5366,
      "Ġpull": 5367,
      "Ġmuseum": 5368,
      "Ġtall": 5369,
      "Ġstone": 5370,
      "ĠGeorg": 5371,
      "Ġunf": 5372,
      "Ġ1998": 5373,
      "ĠHospital": 5374,
      "Ġsensitive": 5375,
      "Ġcircum": 5376,
      "Ġmeant": 5377,
      "Ġapparent": 5378,
      "etics": 5379,
      "Ġphilos": 5380,
      "ĠThrough": 5381,
      "ĠJesus": 5382,
      "Ġappeared": 5383,
      "Ġconfig": 5384,
      "Ġple": 5385,
      "Ġmainly": 5386,
      "ĠPsych": 5387,
      "Ġjobs": 5388,
      "aturally": 5389,
      "ĠDirector": 5390,
      "ĠReport": 5391,
      "Ġgenerated": 5392,
      "Ġdecade": 5393,
      "Ġ500": 5394,
      "Ġoffered": 5395,
      "Ġcholesterol": 5396,
      "TS": 5397,
      "rus": 5398,
      "orter": 5399,
      "Ġoral": 5400,
      "Ġmountain": 5401,
      "Ġsect": 5402,
      "PL": 5403,
      "Ġlose": 5404,
      "Ġ''": 5405,
      "kes": 5406,
      "Ġplayed": 5407,
      "ĠDO": 5408,
      "html": 5409,
      "Ġflo": 5410,
      "Ġspend": 5411,
      "hop": 5412,
      "well": 5413,
      "Ġscientist": 5414,
      "Ġvalu": 5415,
      "Ġterrit": 5416,
      "Ġdiss": 5417,
      "ĠEPA": 5418,
      "48": 5419,
      "athy": 5420,
      "Ġvehicles": 5421,
      "rors": 5422,
      "Ġrelevant": 5423,
      "Ġviolence": 5424,
      "Ġpush": 5425,
      "Ġestimates": 5426,
      "ĠBro": 5427,
      "Ġdecided": 5428,
      "Ġlaunch": 5429,
      "pire": 5430,
      "Ġexamine": 5431,
      "ĠSym": 5432,
      "Ġcalcium": 5433,
      "Ġbiology": 5434,
      "Ġintellig": 5435,
      "Ġpossibly": 5436,
      "ĠMo": 5437,
      "Ġcomments": 5438,
      "encing": 5439,
      "Ġplat": 5440,
      "car": 5441,
      "ĠWrit": 5442,
      "Ġwalls": 5443,
      "Ġfill": 5444,
      "ena": 5445,
      "ĠTur": 5446,
      "ĠFollow": 5447,
      "Ġyouth": 5448,
      "Ġrul": 5449,
      "Ġequival": 5450,
      "Ġapart": 5451,
      "gans": 5452,
      "oster": 5453,
      "Ġrenew": 5454,
      "Ġextent": 5455,
      "ĠColorado": 5456,
      "mas": 5457,
      "Ġcompl": 5458,
      "Ġdecline": 5459,
      "ĠChic": 5460,
      "ĠTime": 5461,
      "ĠGold": 5462,
      "ĠPower": 5463,
      "Ġpoison": 5464,
      "Ġleader": 5465,
      "inations": 5466,
      "ĠIP": 5467,
      "Ġprotected": 5468,
      "Ġspecifically": 5469,
      "Ġsolutions": 5470,
      "Ġappearance": 5471,
      "ĠCharles": 5472,
      "agers": 5473,
      "Ġlargely": 5474,
      "Ġfif": 5475,
      "Ġcolumn": 5476,
      "78": 5477,
      "Ġtitle": 5478,
      "Ġvolunte": 5479,
      "ĠObs": 5480,
      "ĠGroup": 5481,
      "Ġadvance": 5482,
      "Ġneu": 5483,
      "Ġfract": 5484,
      "ercury": 5485,
      "Ġnest": 5486,
      "edu": 5487,
      "Ġmist": 5488,
      "Ġphenomen": 5489,
      "Ġcorrespond": 5490,
      "ĠConn": 5491,
      "anta": 5492,
      "top": 5493,
      "ĠDivision": 5494,
      "Ġcatch": 5495,
      "orms": 5496,
      "ifies": 5497,
      "ĠComput": 5498,
      "ĠAnn": 5499,
      "Ġeastern": 5500,
      "Ġfort": 5501,
      "ĠConservation": 5502,
      "ĠMichael": 5503,
      "Ġexcellent": 5504,
      "zen": 5505,
      "Ġ45": 5506,
      "ĠCy": 5507,
      "Ġinstitutions": 5508,
      "Ġinstruments": 5509,
      "Ġbrows": 5510,
      "',": 5511,
      "Ġcos": 5512,
      "ĠServices": 5513,
      "Ġkm": 5514,
      "ĠSpanish": 5515,
      "lets": 5516,
      "opyright": 5517,
      "onst": 5518,
      "Ġslowly": 5519,
      "Ġcast": 5520,
      "ishing": 5521,
      "afety": 5522,
      "Ġcourses": 5523,
      "ework": 5524,
      "Ġresearcher": 5525,
      "gs": 5526,
      "erals": 5527,
      "Ġnine": 5528,
      "gi": 5529,
      "Ġsufficient": 5530,
      "ĠSuch": 5531,
      "ĠQue": 5532,
      "Ġdial": 5533,
      "Ġregul": 5534,
      "Ġremained": 5535,
      "ss": 5536,
      "Ġclosed": 5537,
      "oyal": 5538,
      "ĠMeth": 5539,
      "mp": 5540,
      "ĠDan": 5541,
      "ĠJud": 5542,
      "Ġbelong": 5543,
      "Ġdomestic": 5544,
      "lements": 5545,
      "Ġwid": 5546,
      "ĠExplore": 5547,
      "ĠGoogle": 5548,
      "Ġcouple": 5549,
      "den": 5550,
      "ĠCap": 5551,
      "Ġexpensive": 5552,
      "Ġbio": 5553,
      "Ġdepartment": 5554,
      "ĠLab": 5555,
      "Ġprepare": 5556,
      "Ġtells": 5557,
      "anguage": 5558,
      "oke": 5559,
      "Ġsolve": 5560,
      "ĠHam": 5561,
      "ij": 5562,
      "Ġfinally": 5563,
      "Ġintroduction": 5564,
      "Ġweap": 5565,
      "ĠID": 5566,
      "Ġyield": 5567,
      "Ġtumor": 5568,
      "Ġsubstance": 5569,
      "Ġleaving": 5570,
      "Ġgar": 5571,
      "How": 5572,
      "Ġran": 5573,
      "Ġtaught": 5574,
      "Ġthr": 5575,
      "Ġdriving": 5576,
      "ĠMichigan": 5577,
      "ĠJews": 5578,
      "ĠRob": 5579,
      "Ġvalid": 5580,
      "Ġattached": 5581,
      "ĠKnow": 5582,
      "Ġabund": 5583,
      "Ġdistingu": 5584,
      "angle": 5585,
      "Ġax": 5586,
      "....": 5587,
      "ĠTherefore": 5588,
      "Ġarray": 5589,
      "ett": 5590,
      "OL": 5591,
      "Ġsettle": 5592,
      "ctive": 5593,
      "Ġinterview": 5594,
      "Ġcurriculum": 5595,
      "br": 5596,
      "Ġsudden": 5597,
      "Ġnor": 5598,
      "itage": 5599,
      "allel": 5600,
      "Ġ188": 5601,
      "US": 5602,
      "Ġalgorith": 5603,
      "ĠAdd": 5604,
      "Ġtherm": 5605,
      "ĠMoon": 5606,
      "Ġfold": 5607,
      "Ġgrand": 5608,
      "vironments": 5609,
      "ĠGlobal": 5610,
      "level": 5611,
      "Ġdescription": 5612,
      "Ġagriculture": 5613,
      "Ġwonder": 5614,
      "Ġhappened": 5615,
      "ĠFurther": 5616,
      "Ġcancers": 5617,
      "rich": 5618,
      "Ġreb": 5619,
      "Ġnations": 5620,
      "Ġcars": 5621,
      "reci": 5622,
      "ĠWork": 5623,
      "Ġraise": 5624,
      "Ġfacts": 5625,
      "ester": 5626,
      "hand": 5627,
      "AA": 5628,
      "Ġselection": 5629,
      "Ġcart": 5630,
      "ĠSpecial": 5631,
      "ĠHenry": 5632,
      "Ġpun": 5633,
      "Ġalt": 5634,
      "ĠJose": 5635,
      "enses": 5636,
      "Ġconsequences": 5637,
      "aur": 5638,
      "what": 5639,
      "Ġinstructions": 5640,
      "pre": 5641,
      "Ġexternal": 5642,
      "Ġminimum": 5643,
      "ossible": 5644,
      "Ġneck": 5645,
      "ilit": 5646,
      "Ġindicates": 5647,
      "rite": 5648,
      "ĠSol": 5649,
      "iced": 5650,
      "Ġchildhood": 5651,
      "Ġdensity": 5652,
      "ĠFamily": 5653,
      "36": 5654,
      "Ġdefect": 5655,
      "alse": 5656,
      "rust": 5657,
      "gu": 5658,
      "Ġproport": 5659,
      "ĠHy": 5660,
      "exp": 5661,
      "Ġtoler": 5662,
      "Ġtow": 5663,
      "Ġaccompl": 5664,
      "Ġsubstant": 5665,
      "Ġcook": 5666,
      "ĠDel": 5667,
      "Ġchest": 5668,
      "Ġsituations": 5669,
      "Ġmanner": 5670,
      "Ġviruses": 5671,
      "ĠJava": 5672,
      "Ġpair": 5673,
      "Ġtried": 5674,
      "which": 5675,
      "Ġunlike": 5676,
      "ĠRock": 5677,
      "Ġ31": 5678,
      "Ġchapter": 5679,
      "ritis": 5680,
      "cling": 5681,
      "Ġplaying": 5682,
      "CS": 5683,
      "Ġentry": 5684,
      "Ġsche": 5685,
      "upp": 5686,
      "Ġregional": 5687,
      "Ġfundamental": 5688,
      "Ġnearby": 5689,
      "Ġ`": 5690,
      "ĠWood": 5691,
      "ĠAsk": 5692,
      "Ġcontinuous": 5693,
      "ĠAM": 5694,
      "Ġrecognized": 5695,
      "Ġdu": 5696,
      "Ġcareer": 5697,
      "38": 5698,
      "Ġstrategy": 5699,
      "Ġ185": 5700,
      "Ġcovers": 5701,
      "Ġconcerned": 5702,
      "Ġawareness": 5703,
      "Ġrural": 5704,
      "Ġseek": 5705,
      "ĠCheck": 5706,
      "ylvan": 5707,
      "ads": 5708,
      "sey": 5709,
      "Ġinflammation": 5710,
      "ĠTake": 5711,
      "Ġremaining": 5712,
      "ĠCurrent": 5713,
      "Ġinfect": 5714,
      "ureau": 5715,
      "Ġitem": 5716,
      "Ġfollows": 5717,
      "ament": 5718,
      "Ġvital": 5719,
      "Ġstarts": 5720,
      "Ġparty": 5721,
      "Ġlandscape": 5722,
      "Ġvaluable": 5723,
      "Ġpersons": 5724,
      "He": 5725,
      "Ġlib": 5726,
      "Ġplane": 5727,
      "RS": 5728,
      "Ġroutine": 5729,
      "ĠMont": 5730,
      "Ġphysician": 5731,
      "ĠGood": 5732,
      "Ġmac": 5733,
      "Ġmaster": 5734,
      "Ġregist": 5735,
      "ĠPublication": 5736,
      "Ġlands": 5737,
      "Ġworse": 5738,
      "Ġcompounds": 5739,
      "Ġrid": 5740,
      "ĠWhe": 5741,
      "ĠWho": 5742,
      "leg": 5743,
      "pass": 5744,
      "Ġtro": 5745,
      "Ġsheet": 5746,
      "Ġepid": 5747,
      "Ġbrother": 5748,
      "Ġtouch": 5749,
      "ĠGal": 5750,
      "Ġsupplies": 5751,
      "Ġcapable": 5752,
      "Ġmechanism": 5753,
      "ĠStart": 5754,
      "Ġdiversity": 5755,
      "xiety": 5756,
      "Ph": 5757,
      "Ġmer": 5758,
      "Ġintake": 5759,
      "ĠCamp": 5760,
      "ĠChapter": 5761,
      "Ġcenturies": 5762,
      "Ġmolecular": 5763,
      "Ġarms": 5764,
      "Ġtasks": 5765,
      "Ġyounger": 5766,
      "mia": 5767,
      "izer": 5768,
      "Ġcoastal": 5769,
      "alysis": 5770,
      "rian": 5771,
      "Ġlessons": 5772,
      "ĠChicago": 5773,
      "Ġacres": 5774,
      "Ġbreeding": 5775,
      "cel": 5776,
      "inder": 5777,
      "Ġpregnant": 5778,
      "Ġapproaches": 5779,
      "Ġhorse": 5780,
      "ĠOpen": 5781,
      "burg": 5782,
      "ella": 5783,
      "ĠEarly": 5784,
      "acco": 5785,
      "aph": 5786,
      "inant": 5787,
      "Ġnaturally": 5788,
      "Ġhoriz": 5789,
      "Ġminim": 5790,
      "New": 5791,
      "Ġpestic": 5792,
      "hips": 5793,
      "Ġshared": 5794,
      "uels": 5795,
      "inf": 5796,
      "verty": 5797,
      "Ġinterface": 5798,
      "ĠPop": 5799,
      "Ġbreathing": 5800,
      "ny": 5801,
      "ĠSometimes": 5802,
      "Ġrefers": 5803,
      "Ġfilled": 5804,
      "Ġpoverty": 5805,
      "Ġcandid": 5806,
      "Ġrecognize": 5807,
      "ĠDown": 5808,
      "ĠStr": 5809,
      "Ġsports": 5810,
      "Ġvolt": 5811,
      "Ġ1997": 5812,
      "Ġdistrict": 5813,
      "Ġcryst": 5814,
      "Ġforced": 5815,
      "umps": 5816,
      "ĠUt": 5817,
      "utorial": 5818,
      "Ġappoint": 5819,
      "asure": 5820,
      "ĠCoast": 5821,
      "stone": 5822,
      "Ġevaluate": 5823,
      "bra": 5824,
      "ĠFrank": 5825,
      "Ġedition": 5826,
      "Ġstock": 5827,
      "Ġcontained": 5828,
      "Ġconcentration": 5829,
      "Ġwear": 5830,
      "Ġargument": 5831,
      "aria": 5832,
      "Ġtransmission": 5833,
      "Ġrecovery": 5834,
      "Ġfreedom": 5835,
      "Ġthread": 5836,
      "Ġoutbre": 5837,
      "Ġbroken": 5838,
      "Ġpin": 5839,
      "ĠHall": 5840,
      "ouds": 5841,
      "Ġenvironments": 5842,
      "Ġfeeling": 5843,
      "Ġtooth": 5844,
      "Ġmales": 5845,
      "ĠTHE": 5846,
      "ĠAS": 5847,
      "Ġsubsequ": 5848,
      "Ġorb": 5849,
      "Ġinsert": 5850,
      "Ġnurs": 5851,
      "ĠAmong": 5852,
      "Ġgun": 5853,
      "Ġimaging": 5854,
      "Ġextract": 5855,
      "ĠNorthern": 5856,
      "Ġlymph": 5857,
      "ria": 5858,
      "ĠRichard": 5859,
      "Ġlaunched": 5860,
      "Ġphoto": 5861,
      "Ġorgans": 5862,
      "iest": 5863,
      "phone": 5864,
      "eck": 5865,
      "Ġwhom": 5866,
      "Ġbattery": 5867,
      "Ġlifest": 5868,
      "nsylvan": 5869,
      "Ġholes": 5870,
      "CE": 5871,
      "soft": 5872,
      "zed": 5873,
      "Ġenhance": 5874,
      "Ġstages": 5875,
      "99": 5876,
      "Ġelectro": 5877,
      "ĠWed": 5878,
      "throp": 5879,
      "Ġtalking": 5880,
      "ĠTem": 5881,
      "ĠMill": 5882,
      "Ġrevealed": 5883,
      "Ġcomfort": 5884,
      "Ġcub": 5885,
      "Ġbank": 5886,
      "Ġprecise": 5887,
      "ĠIr": 5888,
      "Ġrivers": 5889,
      "inating": 5890,
      "asp": 5891,
      "Ġtissues": 5892,
      "Ġsoldiers": 5893,
      "Ġlik": 5894,
      "ĠNor": 5895,
      "using": 5896,
      "Ġintest": 5897,
      "Ġ1980": 5898,
      "Ġhandle": 5899,
      "ained": 5900,
      "PI": 5901,
      "Ġwealth": 5902,
      "Ġcloser": 5903,
      "Ġlayers": 5904,
      "32": 5905,
      "Ġadequ": 5906,
      "Ġnewsp": 5907,
      "Ġrequest": 5908,
      "Ġsuccessfully": 5909,
      "Ġopening": 5910,
      "etts": 5911,
      "ĠBrown": 5912,
      "Ġbeautiful": 5913,
      "Ġdrought": 5914,
      "Ġpropos": 5915,
      "Ġestimate": 5916,
      "When": 5917,
      "Ġspok": 5918,
      "Ġassistance": 5919,
      "Ġfemales": 5920,
      "rans": 5921,
      "Ġurine": 5922,
      "Ġimplementation": 5923,
      "Ġteen": 5924,
      "comes": 5925,
      "Ġpool": 5926,
      "tering": 5927,
      "press": 5928,
      "Ġtrain": 5929,
      "Ġdetected": 5930,
      "Ġrespir": 5931,
      "Ġpros": 5932,
      "Ġderived": 5933,
      "Ġstick": 5934,
      "Ġdisk": 5935,
      "Ġtrials": 5936,
      "uilding": 5937,
      "IM": 5938,
      "For": 5939,
      "ĠGeorgia": 5940,
      "Ġgiant": 5941,
      "Ġhistoric": 5942,
      "ication": 5943,
      "Ġbear": 5944,
      "Ġcrew": 5945,
      "Ġshot": 5946,
      "Ġswim": 5947,
      "'.": 5948,
      "osqu": 5949,
      "Ġpreserv": 5950,
      "Ġmeters": 5951,
      "Ġhazard": 5952,
      "Ġsections": 5953,
      "sts": 5954,
      "Ġlake": 5955,
      "Ġzero": 5956,
      "Ġmobile": 5957,
      "ĠKore": 5958,
      "ĠPennsylvan": 5959,
      "Ġupdated": 5960,
      "Ġturns": 5961,
      "ĠGard": 5962,
      "ocy": 5963,
      "Ġbot": 5964,
      "mittee": 5965,
      "adder": 5966,
      "ubble": 5967,
      "Ġcircuit": 5968,
      "mail": 5969,
      "Ġplatform": 5970,
      "Ġcm": 5971,
      "Ġov": 5972,
      "Ġsight": 5973,
      "ĠCompany": 5974,
      "achus": 5975,
      "Ġfigures": 5976,
      "Ġmarked": 5977,
      "ĠClimate": 5978,
      "ĠEngineering": 5979,
      "ighter": 5980,
      "Ġideal": 5981,
      "Ġlots": 5982,
      "Ġconventional": 5983,
      "Ġring": 5984,
      "HO": 5985,
      "Ġspeak": 5986,
      "CT": 5987,
      "Ġcards": 5988,
      "Ġabuse": 5989,
      "Ġbutton": 5990,
      "add": 5991,
      "Ġruns": 5992,
      "ocation": 5993,
      "Ġequivalent": 5994,
      "olf": 5995,
      "Ġsecondary": 5996,
      "Ġcertainly": 5997,
      "Ġdeliver": 5998,
      "ari": 5999,
      "Ġdiag": 6000,
      "het": 6001,
      "ĠLess": 6002,
      "Ġreligion": 6003,
      "iated": 6004,
      "Ġangle": 6005,
      "Ġcomposition": 6006,
      "icide": 6007,
      "Ġparas": 6008,
      "Ex": 6009,
      "Ġfro": 6010,
      "Ġmovements": 6011,
      "orous": 6012,
      "Ġconflict": 6013,
      "Ġimmig": 6014,
      "Ġ1970": 6015,
      "Ġreality": 6016,
      "ĠExam": 6017,
      "Ġvoice": 6018,
      "ĠHeart": 6019,
      "ĠOrig": 6020,
      "Ġincreasingly": 6021,
      "76": 6022,
      "ĠSafety": 6023,
      "Ġmedium": 6024,
      "rowing": 6025,
      "band": 6026,
      "Ġsupports": 6027,
      "uracy": 6028,
      "Ġdespite": 6029,
      "Ġprem": 6030,
      "Ġsuffer": 6031,
      "eal": 6032,
      "Ġblow": 6033,
      "Ġnose": 6034,
      "Ġcognitive": 6035,
      "Ġthor": 6036,
      "Ġsurve": 6037,
      "Ġsupplement": 6038,
      "ĠAtlantic": 6039,
      "yth": 6040,
      "Ġcreates": 6041,
      "fit": 6042,
      "ĠDig": 6043,
      "ĠTreatment": 6044,
      "mun": 6045,
      "Ġvariables": 6046,
      "ague": 6047,
      "Ġrepeated": 6048,
      "vard": 6049,
      "umes": 6050,
      "CO": 6051,
      "olve": 6052,
      "Ġresolution": 6053,
      "Ġwel": 6054,
      "Ġcontrols": 6055,
      "Ġcarefully": 6056,
      "heimer": 6057,
      "Ġrobot": 6058,
      "Ġresponsibility": 6059,
      "Ġcircle": 6060,
      "Ġmicrosc": 6061,
      "ĠOF": 6062,
      "Ġpublication": 6063,
      "Ġphotos": 6064,
      "Ġautism": 6065,
      "?<": 6066,
      "ĠUSA": 6067,
      "ĠSk": 6068,
      "Ġseeing": 6069,
      "such": 6070,
      "Ġfirm": 6071,
      "Ġunusual": 6072,
      "Ġpossibility": 6073,
      "Ġdrawing": 6074,
      "Ġmicrob": 6075,
      "Ġextended": 6076,
      "Ġprotocol": 6077,
      "Ġdigest": 6078,
      "iform": 6079,
      "net": 6080,
      "Ġviews": 6081,
      "adel": 6082,
      "ĠJeff": 6083,
      "olute": 6084,
      "Ġgluc": 6085,
      "achusetts": 6086,
      "ada": 6087,
      "Ġentirely": 6088,
      "Ġnitrogen": 6089,
      "Ġnetworks": 6090,
      "Ġzone": 6091,
      "Ġchick": 6092,
      "ĠPract": 6093,
      "ĠAtt": 6094,
      "otton": 6095,
      "Ġdedicated": 6096,
      "Ġ36": 6097,
      "Ġfelt": 6098,
      "ĠSearch": 6099,
      "ĠPennsylvania": 6100,
      "Ġevaluation": 6101,
      "Ġcompare": 6102,
      "Ġdiverse": 6103,
      "Ġmit": 6104,
      "CL": 6105,
      "Ġopposite": 6106,
      "ribed": 6107,
      "Ġopened": 6108,
      "Ġpermanent": 6109,
      "ĠTor": 6110,
      "lines": 6111,
      "ĠNext": 6112,
      "Ġdamaged": 6113,
      "ĠLord": 6114,
      "osquit": 6115,
      "Ġcutting": 6116,
      "Ġmachines": 6117,
      "ĠKansas": 6118,
      "Ġemotional": 6119,
      "ĠSign": 6120,
      "Ġends": 6121,
      "ĠHT": 6122,
      "onday": 6123,
      "Ġsimpl": 6124,
      "46": 6125,
      "Ġinvent": 6126,
      "igure": 6127,
      "upt": 6128,
      "Un": 6129,
      "BS": 6130,
      "Ġmodified": 6131,
      "abits": 6132,
      "orses": 6133,
      "vis": 6134,
      "ĠPan": 6135,
      "Ġfaith": 6136,
      "ĠCopyright": 6137,
      "icking": 6138,
      "Ġ150": 6139,
      "ĠThough": 6140,
      "Ġingred": 6141,
      "ĠStreet": 6142,
      "Ġinher": 6143,
      "Ġpresentation": 6144,
      "under": 6145,
      "Ġ1996": 6146,
      "Ġtons": 6147,
      "ga": 6148,
      "Ġmatch": 6149,
      "CD": 6150,
      "thritis": 6151,
      "with": 6152,
      "Ġinvolving": 6153,
      "Ġrestrict": 6154,
      "ĠUpd": 6155,
      "ĠYet": 6156,
      "Ġorganized": 6157,
      "Ġsustainable": 6158,
      "ĠMassachusetts": 6159,
      "ivation": 6160,
      "Ġaccum": 6161,
      "Ġlungs": 6162,
      "Ġseconds": 6163,
      "Ġouter": 6164,
      "IA": 6165,
      "Ġtropical": 6166,
      "ĠCa": 6167,
      "atever": 6168,
      "Ġwife": 6169,
      "Ġflower": 6170,
      "ĠNut": 6171,
      "Ġgreatly": 6172,
      "Ġmissing": 6173,
      "Ġhydro": 6174,
      "Ġpurs": 6175,
      "inction": 6176,
      "ione": 6177,
      "Ġblocks": 6178,
      "Ġexamination": 6179,
      "Ġ1995": 6180,
      "ĠMinnes": 6181,
      "enza": 6182,
      "Ġtransportation": 6183,
      "oston": 6184,
      "ulty": 6185,
      "ĠOnline": 6186,
      "Ġmanaged": 6187,
      "Ġparallel": 6188,
      "azine": 6189,
      "organ": 6190,
      "char": 6191,
      "stood": 6192,
      "ĠPers": 6193,
      "Ġpersist": 6194,
      "abul": 6195,
      "Ġwalking": 6196,
      "Ġfell": 6197,
      "ĠLinux": 6198,
      "Ġinsulin": 6199,
      "ipedia": 6200,
      "Ġkit": 6201,
      "ĠDistrict": 6202,
      "ĠKey": 6203,
      "Ġtrib": 6204,
      "Ġperspective": 6205,
      "produ": 6206,
      "ificial": 6207,
      "Ġgovernments": 6208,
      "ucky": 6209,
      "Ġantibiotics": 6210,
      "EE": 6211,
      "inois": 6212,
      "\")": 6213,
      "Ġsell": 6214,
      "Ġdifficulty": 6215,
      "ĠCath": 6216,
      "Ġbind": 6217,
      "Ġmixed": 6218,
      "Ġchain": 6219,
      "Ġdemonstrate": 6220,
      "Ġenable": 6221,
      "Ġpercentage": 6222,
      "acing": 6223,
      "spec": 6224,
      ".'": 6225,
      "ario": 6226,
      "ĠBig": 6227,
      "Ġdivision": 6228,
      "ĠColumbia": 6229,
      "ĠVict": 6230,
      "Ġreplaced": 6231,
      "Ġregularly": 6232,
      "Ġcats": 6233,
      "RA": 6234,
      "Ġgather": 6235,
      "ĠSever": 6236,
      "lar": 6237,
      "Ġneur": 6238,
      "ĠFire": 6239,
      "ĠRights": 6240,
      "ĠMS": 6241,
      "Ġfacility": 6242,
      "ĠCanadian": 6243,
      "isk": 6244,
      "Ġimmediate": 6245,
      "pread": 6246,
      "ĠForm": 6247,
      "ait": 6248,
      "Ġrecommendations": 6249,
      "ĠScott": 6250,
      "Ġdomain": 6251,
      "Ġ65": 6252,
      "Ġjump": 6253,
      "stein": 6254,
      "Ġ32": 6255,
      "oul": 6256,
      "Ġdose": 6257,
      "Ġmemb": 6258,
      "anging": 6259,
      "44": 6260,
      "Ġinhib": 6261,
      "ĠStar": 6262,
      "Ġgalaxies": 6263,
      "Ġbutter": 6264,
      "Ġharmful": 6265,
      "Ġ75": 6266,
      "Ġexplanation": 6267,
      "!<": 6268,
      "Ġrising": 6269,
      "body": 6270,
      "orders": 6271,
      "Ġdiameter": 6272,
      "Ġappreci": 6273,
      "Ġinner": 6274,
      "Ġreactions": 6275,
      "luding": 6276,
      "Ġgalaxy": 6277,
      "Ġshad": 6278,
      "aked": 6279,
      "part": 6280,
      "Ġhouses": 6281,
      "arctic": 6282,
      "Ġadvoc": 6283,
      "Definition": 6284,
      "ĠMinnesota": 6285,
      "Ġuniversity": 6286,
      "Ġdiscussed": 6287,
      "ĠThree": 6288,
      "ugg": 6289,
      "Ġsubstances": 6290,
      "Ġburning": 6291,
      "Ġengineers": 6292,
      "Ġreaders": 6293,
      "37": 6294,
      "ca": 6295,
      "Ġdelay": 6296,
      "Ġdistur": 6297,
      "Ġbudget": 6298,
      "issipp": 6299,
      "ato": 6300,
      "Ġlect": 6301,
      "Ġnoise": 6302,
      "Ġchromos": 6303,
      "ĠTV": 6304,
      "Ġplays": 6305,
      "cycl": 6306,
      "olars": 6307,
      "Ġplus": 6308,
      "zheimer": 6309,
      "ĠMartin": 6310,
      "Ġinstalled": 6311,
      "ups": 6312,
      "Ġchoices": 6313,
      "hea": 6314,
      "iana": 6315,
      "yroid": 6316,
      "Ġdefine": 6317,
      "Ġchemistry": 6318,
      "Ġbiggest": 6319,
      "Ġmentioned": 6320,
      "Ġcompr": 6321,
      "Ġcalories": 6322,
      "Ġhormone": 6323,
      "39": 6324,
      "Ġannounced": 6325,
      "Ġarmy": 6326,
      "ĠAgriculture": 6327,
      "Ġwants": 6328,
      "QL": 6329,
      "Ġtumors": 6330,
      "Ġaccuracy": 6331,
      "Ġspin": 6332,
      "Ġlimits": 6333,
      "Ġconsumers": 6334,
      "isation": 6335,
      "ĠYoung": 6336,
      "ipping": 6337,
      "ĠDespite": 6338,
      "Ġtrouble": 6339,
      "ĠMult": 6340,
      "Ġtruth": 6341,
      "Ġdefault": 6342,
      "Ġanxiety": 6343,
      "Ġunderlying": 6344,
      "idespread": 6345,
      "Ġthro": 6346,
      "opic": 6347,
      "incol": 6348,
      "Ġske": 6349,
      "LE": 6350,
      "ancing": 6351,
      "ĠBoard": 6352,
      "pling": 6353,
      "Ġunc": 6354,
      "abric": 6355,
      "ĠImage": 6356,
      "Ġdestroyed": 6357,
      "iate": 6358,
      "Ġgender": 6359,
      "Ġdiscipl": 6360,
      "itness": 6361,
      "Ġsurfaces": 6362,
      "ertain": 6363,
      "ĠPM": 6364,
      "anes": 6365,
      "phia": 6366,
      "ĠAuthor": 6367,
      "Ġhun": 6368,
      "86": 6369,
      "Ġsin": 6370,
      "Ġhardware": 6371,
      "called": 6372,
      "Ġwarning": 6373,
      "Ġassociate": 6374,
      "Ġstimul": 6375,
      "ĠIllinois": 6376,
      "Ġpaid": 6377,
      "Ġinfants": 6378,
      "onia": 6379,
      "American": 6380,
      "Ġtract": 6381,
      "Ġexamined": 6382,
      "Ġsteel": 6383,
      "Ġfrequent": 6384,
      "Ġmoves": 6385,
      "itudes": 6386,
      "tenance": 6387,
      "ĠCall": 6388,
      "ĠAlzheimer": 6389,
      "Ġstands": 6390,
      "Ġframe": 6391,
      "irect": 6392,
      "Ġmode": 6393,
      "Ġath": 6394,
      "ĠChange": 6395,
      "ki": 6396,
      "Ġphr": 6397,
      "ĠBoston": 6398,
      "01": 6399,
      "ivery": 6400,
      "ĠProp": 6401,
      "Ġdrawn": 6402,
      "ĠGulf": 6403,
      "Ġcenters": 6404,
      "Ġimproving": 6405,
      "idden": 6406,
      "Ġmathematics": 6407,
      "Ġgoods": 6408,
      "ĠBible": 6409,
      "ĠMonday": 6410,
      "ĠPeter": 6411,
      "osh": 6412,
      "ĠCommittee": 6413,
      "outs": 6414,
      "Ġinsp": 6415,
      "ĠAlaska": 6416,
      "Ġsweet": 6417,
      "riday": 6418,
      "Ġsentence": 6419,
      "Ġdebate": 6420,
      "ĠJohnson": 6421,
      "earing": 6422,
      "Ġaccident": 6423,
      "Ġdecide": 6424,
      "Ġaward": 6425,
      "ĠEastern": 6426,
      "Ġaccounts": 6427,
      "Ġgravity": 6428,
      "ora": 6429,
      "ĠFinally": 6430,
      "Ġbuff": 6431,
      "Ġrein": 6432,
      "Ġsecure": 6433,
      "ĠEc": 6434,
      "Ġissued": 6435,
      "Ġknew": 6436,
      "They": 6437,
      "Ġearthquake": 6438,
      "abled": 6439,
      "Ġfunded": 6440,
      "ĠArab": 6441,
      "ĠDou": 6442,
      "ĠAlex": 6443,
      "Ġprove": 6444,
      "oted": 6445,
      "Ġblind": 6446,
      "ostic": 6447,
      "ĠClinical": 6448,
      "HA": 6449,
      "Ġtrip": 6450,
      "isco": 6451,
      "Ġlists": 6452,
      "Ġlifestyle": 6453,
      "ĠMississipp": 6454,
      "Ġclouds": 6455,
      "Ġrecept": 6456,
      "http": 6457,
      "ansion": 6458,
      "anged": 6459,
      "ĠMad": 6460,
      "adelphia": 6461,
      "Ġgases": 6462,
      "ocking": 6463,
      "Ġahead": 6464,
      "alks": 6465,
      "Ġ1960": 6466,
      "Ġmeteor": 6467,
      "Ġpolar": 6468,
      "incoln": 6469,
      "clusion": 6470,
      "Ġboys": 6471,
      "Ġhop": 6472,
      "Ġauthority": 6473,
      "Ġcapture": 6474,
      "Ġexercises": 6475,
      "Ġstrain": 6476,
      "inet": 6477,
      "Ġeditor": 6478,
      "gical": 6479,
      "mers": 6480,
      "Ġvote": 6481,
      "Ġcontem": 6482,
      "Ġparticipate": 6483,
      "olesc": 6484,
      "Ġcattle": 6485,
      "isters": 6486,
      "Ġreader": 6487,
      "ĠIndians": 6488,
      "Ġbranches": 6489,
      "Ġmouse": 6490,
      "ĠRussian": 6491,
      "ĠDoes": 6492,
      "ĠAriz": 6493,
      "Ġvirtual": 6494,
      "Ġapproved": 6495,
      "ĠFree": 6496,
      "ĠSolar": 6497,
      "Ġswitch": 6498,
      "Ġmechanisms": 6499,
      "Ġrepresented": 6500,
      "oding": 6501,
      "ĠJoseph": 6502,
      "Ġregulations": 6503,
      "Ġgrew": 6504,
      "Ġclaims": 6505,
      "no": 6506,
      "hered": 6507,
      "Ġbehaviors": 6508,
      "IP": 6509,
      "Ġpollut": 6510,
      "Ġ?": 6511,
      "Ġholid": 6512,
      "Ġconsistent": 6513,
      "ĠNov": 6514,
      "Ġoverl": 6515,
      "Ġexistence": 6516,
      "bert": 6517,
      "Ġrect": 6518,
      "Ġnewly": 6519,
      "Ġarchae": 6520,
      "ums": 6521,
      "Ġspecified": 6522,
      "ouri": 6523,
      "ĠMer": 6524,
      "Ġvoltage": 6525,
      "inson": 6526,
      "regon": 6527,
      "Ġfiber": 6528,
      "ittle": 6529,
      "ĠCDC": 6530,
      "Ġexists": 6531,
      "ĠCreek": 6532,
      "Ġplayers": 6533,
      "Ġimpossible": 6534,
      "otherapy": 6535,
      "ĠCorn": 6536,
      "rep": 6537,
      "ĠSet": 6538,
      "Ġstatistics": 6539,
      "Ġfailed": 6540,
      "Ġships": 6541,
      "ĠRussia": 6542,
      "Ġconstit": 6543,
      "Ġera": 6544,
      "orph": 6545,
      "Ġfishing": 6546,
      "34": 6547,
      "Ġmeasurement": 6548,
      "Ġsenior": 6549,
      "Ġmedicines": 6550,
      "Ġsan": 6551,
      "Ġdetection": 6552,
      "Ġmessages": 6553,
      "Ġconcentrations": 6554,
      "onal": 6555,
      "ologic": 6556,
      "Ġroughly": 6557,
      "acu": 6558,
      "Ġvoc": 6559,
      "Ġnecessarily": 6560,
      "istan": 6561,
      "Ġwheat": 6562,
      "tles": 6563,
      "Ġshapes": 6564,
      "Ġpure": 6565,
      "ĠConstitution": 6566,
      "Ġgone": 6567,
      "Ġtank": 6568,
      "Ġpra": 6569,
      "rey": 6570,
      "ibilities": 6571,
      "Ġobst": 6572,
      "Ġbreath": 6573,
      "Ġformal": 6574,
      ")|": 6575,
      "Ġwidespread": 6576,
      "Ġthousand": 6577,
      "rared": 6578,
      "Ġdoor": 6579,
      "Ġdisaster": 6580,
      "Ġsubs": 6581,
      "Ġprofessionals": 6582,
      "Ġholds": 6583,
      "ĠCreat": 6584,
      "On": 6585,
      "Ġjoin": 6586,
      "Ġadopted": 6587,
      "indu": 6588,
      "Ġgrows": 6589,
      "ĠPhiladelphia": 6590,
      "rd": 6591,
      "oir": 6592,
      "Ġtight": 6593,
      "ĠNOT": 6594,
      "Ġvarieties": 6595,
      "Ġmosquit": 6596,
      "Ġboost": 6597,
      "ĠFish": 6598,
      "nesday": 6599,
      "Ġadministr": 6600,
      "Ġpreval": 6601,
      "irt": 6602,
      "Ġstreams": 6603,
      "ĠHill": 6604,
      "Ġrevolution": 6605,
      "Ġmanip": 6606,
      "ĠSeveral": 6607,
      "zone": 6608,
      "Ġinteractive": 6609,
      "Ġknows": 6610,
      "Our": 6611,
      "uesday": 6612,
      "dered": 6613,
      "hist": 6614,
      "Ġtherap": 6615,
      "rovers": 6616,
      "ĠCat": 6617,
      "ĠNations": 6618,
      "Ġstable": 6619,
      "ĠArctic": 6620,
      "Ġaccepted": 6621,
      "ĠMississippi": 6622,
      "Ġenem": 6623,
      "ĠFour": 6624,
      "ĠBureau": 6625,
      "certain": 6626,
      "ĠProtection": 6627,
      "Ġreturns": 6628,
      "TH": 6629,
      "Ġstanding": 6630,
      "hyth": 6631,
      "Ġversions": 6632,
      "Ġratio": 6633,
      "Ġpreventing": 6634,
      "ĠSuper": 6635,
      "Ġdollars": 6636,
      "Ġendangered": 6637,
      "ĠAntarctic": 6638,
      "Ġexpressed": 6639,
      "Ġcomparison": 6640,
      "Ġfixed": 6641,
      "mes": 6642,
      "Ġpurchase": 6643,
      "hesis": 6644,
      "ĠAstron": 6645,
      "Ġresponses": 6646,
      "Ġmyth": 6647,
      "asters": 6648,
      "ĠAngel": 6649,
      "ua": 6650,
      "ii": 6651,
      "pet": 6652,
      "Ġscar": 6653,
      "ĠMag": 6654,
      "Ġmeasuring": 6655,
      "Ġkilometers": 6656,
      "ibraries": 6657,
      "Ġchart": 6658,
      "Ġremark": 6659,
      "uts": 6660,
      "oral": 6661,
      "ursday": 6662,
      "ĠSa": 6663,
      "Ġformula": 6664,
      "88": 6665,
      "Ġmanufacturing": 6666,
      "abb": 6667,
      "Ġtrust": 6668,
      "ĠOx": 6669,
      "Ġflag": 6670,
      "Ġsuitable": 6671,
      "Ġreviewed": 6672,
      "Ġcaptured": 6673,
      "ĠMel": 6674,
      "fortunately": 6675,
      "Cl": 6676,
      "itter": 6677,
      "Ġatoms": 6678,
      "Ġ400": 6679,
      "ĠSand": 6680,
      "scale": 6681,
      "reed": 6682,
      "ette": 6683,
      "ĠStation": 6684,
      "ya": 6685,
      "foot": 6686,
      "Ġacids": 6687,
      "ĠOregon": 6688,
      "ĠSymptoms": 6689,
      "Ġlies": 6690,
      "Ġdemonstrated": 6691,
      "Ġsoils": 6692,
      "inity": 6693,
      "Ġinteraction": 6694,
      "Ġhighlight": 6695,
      "Ġadds": 6696,
      "Ġspectrum": 6697,
      "ĠHarvard": 6698,
      "ĠBill": 6699,
      "Ġturb": 6700,
      "Ġrarely": 6701,
      "Ġtob": 6702,
      "een": 6703,
      "ĠField": 6704,
      "ĠLanguage": 6705,
      "Ġnervous": 6706,
      "Ġsatis": 6707,
      "Ġconstructed": 6708,
      "Ġplanting": 6709,
      "irty": 6710,
      "Ġidentity": 6711,
      "ĠTry": 6712,
      "49": 6713,
      "Ġmoisture": 6714,
      "Ġsched": 6715,
      "ĠHistorical": 6716,
      "ĠFriday": 6717,
      "Ġchosen": 6718,
      "iders": 6719,
      "47": 6720,
      "Ġfairly": 6721,
      "Ġcough": 6722,
      "Ġsettings": 6723,
      "ĠCommunity": 6724,
      "ĠOS": 6725,
      "Ġphosph": 6726,
      "Ġglucose": 6727,
      "Ġwish": 6728,
      "Ġprison": 6729,
      "Ġabsolute": 6730,
      "Ġsmooth": 6731,
      "ĠDrug": 6732,
      "ĠLincoln": 6733,
      "Ġvulnerable": 6734,
      "uty": 6735,
      "rastructure": 6736,
      "Ġtransplant": 6737,
      "Ġputting": 6738,
      "31": 6739,
      "HD": 6740,
      "operative": 6741,
      "Ġneuro": 6742,
      "ĠScot": 6743,
      "Ġrepair": 6744,
      "iscons": 6745,
      "Ġcrow": 6746,
      "uality": 6747,
      "rob": 6748,
      "ellect": 6749,
      "ĠEqu": 6750,
      "ĠMissouri": 6751,
      "Ġmechanical": 6752,
      "Ġchlor": 6753,
      "isconsin": 6754,
      "ĠLow": 6755,
      "alls": 6756,
      "ĠConst": 6757,
      "ĠChristmas": 6758,
      "ĠThanks": 6759,
      "ĠArizona": 6760,
      "Ġborder": 6761,
      "Ġblog": 6762,
      "But": 6763,
      "Ġwinds": 6764,
      "itals": 6765,
      "roduction": 6766,
      "PU": 6767,
      "Ġcomplications": 6768,
      "avery": 6769,
      "Ġtables": 6770,
      "ĠMaryland": 6771,
      "Ġunderstood": 6772,
      "Ġlaser": 6773,
      "ola": 6774,
      "alian": 6775,
      "ĠObserv": 6776,
      "Ġpresents": 6777,
      "abulary": 6778,
      "Ġtobacco": 6779,
      "Ġhypothes": 6780,
      "Ġbleeding": 6781,
      "Ġfalse": 6782,
      "ĠRef": 6783,
      "Ġjoined": 6784,
      "Ġgraduate": 6785,
      "Ġbees": 6786,
      "Ġmere": 6787,
      "cript": 6788,
      "Ġdescript": 6789,
      "Ġunable": 6790,
      "ĠNO": 6791,
      "Ġindicated": 6792,
      "ĠContact": 6793,
      "Ġ)": 6794,
      "Ġfer": 6795,
      "ĠFund": 6796,
      "Ġsuc": 6797,
      "Ġbeneficial": 6798,
      "Ġachieved": 6799,
      "liest": 6800,
      "ey": 6801,
      "Ġexchange": 6802,
      "Ġfed": 6803,
      "Ġoccasion": 6804,
      "gers": 6805,
      "ĠBudd": 6806,
      "Ġrab": 6807,
      "Ġtrad": 6808,
      "Ġconference": 6809,
      "Ġadministration": 6810,
      "Ġoptim": 6811,
      "Ġroute": 6812,
      "Ġadap": 6813,
      "Ġfourth": 6814,
      "ĠSov": 6815,
      "Ġoperate": 6816,
      "Ġraw": 6817,
      "books": 6818,
      "Ġbeet": 6819,
      "Ġcultures": 6820,
      "Ġdaughter": 6821,
      "ochem": 6822,
      "Ġreceiving": 6823,
      "Ġanywhere": 6824,
      "heet": 6825,
      "charge": 6826,
      "ĠPot": 6827,
      "Ġultimately": 6828,
      "Ġbreed": 6829,
      "ĠForce": 6830,
      "ograp": 6831,
      "----": 6832,
      "eper": 6833,
      "Ġeld": 6834,
      "Ġacts": 6835,
      "Ġmarriage": 6836,
      "Ġpapers": 6837,
      "Ġroof": 6838,
      "ĠLeg": 6839,
      ").<": 6840,
      "Ġfacilit": 6841,
      "azing": 6842,
      "Ġrespiratory": 6843,
      "Ġpp": 6844,
      "Ġgrain": 6845,
      "Ġphotographs": 6846,
      "awn": 6847,
      "ĠBeh": 6848,
      "77": 6849,
      "Ġhabits": 6850,
      "Ġprincipal": 6851,
      "Ġvel": 6852,
      "Ġbridge": 6853,
      "Ġcommunicate": 6854,
      "Ġarchitecture": 6855,
      "sen": 6856,
      "Ġbacterial": 6857,
      "ĠMicrosoft": 6858,
      "Ġtroops": 6859,
      "ifications": 6860,
      "Ġinfant": 6861,
      "Ġsuscept": 6862,
      "ĠWednesday": 6863,
      "Ġaf": 6864,
      "arant": 6865,
      "airy": 6866,
      "Ġrig": 6867,
      "Ġmortality": 6868,
      "Ġconfirmed": 6869,
      "Ġinterests": 6870,
      "Ġimprovement": 6871,
      "Ġsurge": 6872,
      "ĠHand": 6873,
      "Ġamb": 6874,
      "rass": 6875,
      "ĠBiology": 6876,
      "yles": 6877,
      "Ġempt": 6878,
      "ĠIII": 6879,
      "Ġstuff": 6880,
      "Ġequation": 6881,
      "ometry": 6882,
      "Ġassigned": 6883,
      "Ġreform": 6884,
      "Ġgenome": 6885,
      "Ġsediment": 6886,
      "Ġprompt": 6887,
      "ĠSing": 6888,
      "Ġtreating": 6889,
      "Ġarrived": 6890,
      "ĠTuesday": 6891,
      "Ġfet": 6892,
      "ĠCult": 6893,
      "Ġmineral": 6894,
      "ĠWisconsin": 6895,
      "Ġtheore": 6896,
      "Ġhorses": 6897,
      "ĠSund": 6898,
      "ĠAssess": 6899,
      "ĠQuestions": 6900,
      "Ġrice": 6901,
      "Ġimplications": 6902,
      "Ġidentifying": 6903,
      "wing": 6904,
      "aired": 6905,
      "bles": 6906,
      "riers": 6907,
      "Ġalph": 6908,
      "Ġconnections": 6909,
      "Ġpanel": 6910,
      "Ġmathematical": 6911,
      "Ar": 6912,
      "05": 6913,
      "Ġparam": 6914,
      "ovascular": 6915,
      "Ġbread": 6916,
      "ĠEffect": 6917,
      "Ġsomewhat": 6918,
      "Ġfasc": 6919,
      "Ġdelivery": 6920,
      "Ġintegrated": 6921,
      "Ġtelevision": 6922,
      "GS": 6923,
      "isis": 6924,
      "Ġserving": 6925,
      "Ġethnic": 6926,
      "Ġoutcomes": 6927,
      "Ġgenerations": 6928,
      "Ġsunlight": 6929,
      "inn": 6930,
      "ĠComple": 6931,
      "ĠDar": 6932,
      "ĠEst": 6933,
      "Ġsuffering": 6934,
      "ĠMedia": 6935,
      "Ġmammals": 6936,
      "itative": 6937,
      "Ġmaintenance": 6938,
      "Ġinteractions": 6939,
      "Ġherb": 6940,
      "ĠTom": 6941,
      "Re": 6942,
      "utch": 6943,
      "ĠBab": 6944,
      "Ġcategory": 6945,
      "Ġfabric": 6946,
      "etry": 6947,
      "ĠAIDS": 6948,
      "bean": 6949,
      "ricane": 6950,
      "ĠStandard": 6951,
      "igned": 6952,
      "Ġdistributed": 6953,
      "Ġautomatically": 6954,
      "ĠSystems": 6955,
      "Ġvegetation": 6956,
      "Ġlov": 6957,
      "Ġvillage": 6958,
      "Ġevolved": 6959,
      "class": 6960,
      "ĠThursday": 6961,
      "Ġresulted": 6962,
      "Ġspeaking": 6963,
      "Ġcarrying": 6964,
      "Ġsharp": 6965,
      "Ġpromin": 6966,
      "Ġflows": 6967,
      "how": 6968,
      "apse": 6969,
      "Ġ%": 6970,
      "ĠDen": 6971,
      "Ġwasn": 6972,
      "ĠWay": 6973,
      "Ġcurren": 6974,
      "Ġattend": 6975,
      "Ġpeak": 6976,
      "ĠNon": 6977,
      "Ġopinion": 6978,
      "95": 6979,
      "Ġbiom": 6980,
      "Ġassociation": 6981,
      "Ġcareful": 6982,
      "Ġcolour": 6983,
      "Ġfinds": 6984,
      "ĠBlood": 6985,
      "Ġhabitats": 6986,
      "ĠPo": 6987,
      "Ġsav": 6988,
      "ventions": 6989,
      "ĠNumber": 6990,
      "ĠWhich": 6991,
      "teen": 6992,
      "Ġmothers": 6993,
      "ĠColl": 6994,
      "Ġframework": 6995,
      "occ": 6996,
      "Ġtrained": 6997,
      "Ġcontrovers": 6998,
      "ĠMath": 6999,
      "ĠAsian": 7000,
      "Ġminerals": 7001,
      "Ġaccessible": 7002,
      "ĠConfed": 7003,
      "Ġcarb": 7004,
      "Ġdanger": 7005,
      "Ġwheel": 7006,
      "Ġintervention": 7007,
      "ĠVictor": 7008,
      "ĠMap": 7009,
      "ĠSelect": 7010,
      "unar": 7011,
      "Ġfighting": 7012,
      "By": 7013,
      "Ġcotton": 7014,
      "Ġpassing": 7015,
      "Ġtraum": 7016,
      "Ġexhibit": 7017,
      "Ġerrors": 7018,
      "Ġcham": 7019,
      "Ġexploration": 7020,
      "Ġinch": 7021,
      "shaped": 7022,
      "know": 7023,
      "AB": 7024,
      "ĠUnfortunately": 7025,
      "Ġcaught": 7026,
      "ship": 7027,
      "Ġmodule": 7028,
      "Ġprinciple": 7029,
      "Ġshift": 7030,
      "allow": 7031,
      "Ġbigger": 7032,
      "Ġemployees": 7033,
      "Ġcopyright": 7034,
      "ixture": 7035,
      "amination": 7036,
      "rot": 7037,
      "Ġcord": 7038,
      "arsh": 7039,
      "Ġreferences": 7040,
      "ushed": 7041,
      "Ġtransmitted": 7042,
      "Ġbiod": 7043,
      "icians": 7044,
      "Ġpharm": 7045,
      "Ġroads": 7046,
      "Ġcrucial": 7047,
      "Ġfoundation": 7048,
      "Ġcav": 7049,
      "Ġmeal": 7050,
      "Ġmur": 7051,
      "ĠFrancisco": 7052,
      "Ġcontainer": 7053,
      "Ġlights": 7054,
      "Ġplayer": 7055,
      "Ġadequate": 7056,
      "Ġspray": 7057,
      "Ġislands": 7058,
      "Ġwait": 7059,
      "opl": 7060,
      "Ġsmart": 7061,
      "Ġoccurring": 7062,
      "Ġexperimental": 7063,
      "emia": 7064,
      "ĠCenters": 7065,
      "ĠOper": 7066,
      "Ġlakes": 7067,
      "Ġcategories": 7068,
      "ala": 7069,
      "ĠFact": 7070,
      "Ġminute": 7071,
      "ĠObject": 7072,
      "western": 7073,
      "Ad": 7074,
      "Ġflash": 7075,
      "Ġscene": 7076,
      "Ġbranch": 7077,
      "ĠCamb": 7078,
      "onn": 7079,
      "Ġdeer": 7080,
      "Ġengines": 7081,
      "Ġintense": 7082,
      "Ġprinted": 7083,
      "Ġturning": 7084,
      "Ġcup": 7085,
      "ĠSmall": 7086,
      "ĠOrganization": 7087,
      "Ġorient": 7088,
      "quar": 7089,
      "Ġentered": 7090,
      "writ": 7091,
      "|<": 7092,
      "CH": 7093,
      "Ġspinal": 7094,
      "oned": 7095,
      "ĠKn": 7096,
      "ĠKent": 7097,
      "ĠAL": 7098,
      "ĠCell": 7099,
      "ĠLight": 7100,
      "Ġfeat": 7101,
      "Ġ1994": 7102,
      "Ġcrisis": 7103,
      "ĠModel": 7104,
      "ĠSil": 7105,
      "Ġvisitors": 7106,
      "ĠHawai": 7107,
      "UN": 7108,
      "Ġcompetition": 7109,
      "ĠStandards": 7110,
      "cyclop": 7111,
      "rox": 7112,
      "Ġgram": 7113,
      "Ġprev": 7114,
      "Ġcorpor": 7115,
      "Ġusage": 7116,
      "Ġdecreased": 7117,
      "usal": 7118,
      "Ġartificial": 7119,
      "upiter": 7120,
      "ĠMaterial": 7121,
      "ĠSecret": 7122,
      "65": 7123,
      "Ġresident": 7124,
      "Ġcompound": 7125,
      "borne": 7126,
      "otype": 7127,
      "Ġtelescope": 7128,
      "elled": 7129,
      "Ġflying": 7130,
      "RL": 7131,
      "ĠOk": 7132,
      "ĠUSDA": 7133,
      "tra": 7134,
      "Ġdirections": 7135,
      "Ġhonor": 7136,
      "Ġmand": 7137,
      "Ġirrit": 7138,
      "ĠMen": 7139,
      "ivated": 7140,
      "ĠInit": 7141,
      "Ġdesert": 7142,
      "Ġsession": 7143,
      "rin": 7144,
      "but": 7145,
      "Ġbusinesses": 7146,
      "atial": 7147,
      "Ġpit": 7148,
      "words": 7149,
      "Ġfires": 7150,
      "Ġcopper": 7151,
      "Ġtutorial": 7152,
      "Ġclothing": 7153,
      "Ġlegislation": 7154,
      "ricts": 7155,
      "mm": 7156,
      "ĠTim": 7157,
      "ieve": 7158,
      "neum": 7159,
      "Ġcomposed": 7160,
      "stances": 7161,
      "Ġtransition": 7162,
      "ĠTre": 7163,
      "ĠAge": 7164,
      "rolled": 7165,
      "ĠDid": 7166,
      "Ġacute": 7167,
      "Ġcorner": 7168,
      "Ġpolice": 7169,
      "Ġquarter": 7170,
      "ĠRevolution": 7171,
      "gent": 7172,
      "ashion": 7173,
      "Ġstre": 7174,
      "Ġwound": 7175,
      "Ġfunds": 7176,
      "Ġgrid": 7177,
      "ĠVen": 7178,
      "Ġcoff": 7179,
      "otes": 7180,
      "istical": 7181,
      "Ġvaccines": 7182,
      "Ġtaste": 7183,
      "Ġgro": 7184,
      "Ġholding": 7185,
      "Ġadolesc": 7186,
      "Ġclock": 7187,
      "ĠHead": 7188,
      "Ġended": 7189,
      "Ġseat": 7190,
      "ĠWikipedia": 7191,
      "ĠIndust": 7192,
      "Ġpermission": 7193,
      "Ġdirectory": 7194,
      "Ġatmospheric": 7195,
      "teb": 7196,
      "ka": 7197,
      "ami": 7198,
      "cin": 7199,
      "eroid": 7200,
      "Ġparties": 7201,
      "Ġchannel": 7202,
      "Ġfisher": 7203,
      "IR": 7204,
      "Ġpray": 7205,
      "itt": 7206,
      "ĠTimes": 7207,
      "Ġteens": 7208,
      "Ġanalyze": 7209,
      "ĠWord": 7210,
      "Ġfocuses": 7211,
      "ployment": 7212,
      "Ġmir": 7213,
      "Ġstated": 7214,
      "Ġplanned": 7215,
      ".;": 7216,
      "Ġnone": 7217,
      "Ġstations": 7218,
      "ih": 7219,
      "Ġremoval": 7220,
      "Ġcoverage": 7221,
      "Ġpreparation": 7222,
      "Ġcovering": 7223,
      "Ġongoing": 7224,
      "ĠHelp": 7225,
      "Ġeffectiveness": 7226,
      "Ġfinger": 7227,
      "Ġsupporting": 7228,
      "Ġreveal": 7229,
      "These": 7230,
      "Ġmining": 7231,
      "Ġusual": 7232,
      "ĠPet": 7233,
      "ĠRome": 7234,
      "rub": 7235,
      "ulsion": 7236,
      "Ġfunctional": 7237,
      "Ġprey": 7238,
      "anda": 7239,
      "ĠJupiter": 7240,
      "ĠFDA": 7241,
      "ĠRoyal": 7242,
      "asma": 7243,
      "Ġmaintained": 7244,
      "Ġorange": 7245,
      "Ġdinosa": 7246,
      "Ġelectrons": 7247,
      "ĠCite": 7248,
      "Ġgray": 7249,
      "ivest": 7250,
      "Ġinfrastructure": 7251,
      "Ġgap": 7252,
      "Ġspots": 7253,
      "Ġplot": 7254,
      "Ġcollaboration": 7255,
      "erior": 7256,
      "itivity": 7257,
      "Ġdisabilities": 7258,
      "Ġagents": 7259,
      "Ġrecre": 7260,
      "Ġposted": 7261,
      "ĠJul": 7262,
      "DS": 7263,
      "To": 7264,
      "Ġdense": 7265,
      "ĠAnsw": 7266,
      "IF": 7267,
      "Ġheads": 7268,
      "Ġlisten": 7269,
      "ĠAND": 7270,
      "Ġtrigger": 7271,
      "Ġstrongly": 7272,
      "Ġassistant": 7273,
      "Ġhousing": 7274,
      "neys": 7275,
      "Ġcomplicated": 7276,
      "Ġtwenty": 7277,
      "Ġidentification": 7278,
      "ENT": 7279,
      "Ġ48": 7280,
      "ocratic": 7281,
      "Ġescape": 7282,
      "Ġsuns": 7283,
      "Ġconcrete": 7284,
      "Ġbor": 7285,
      "Ġscholars": 7286,
      "Ġpossess": 7287,
      "Ġsulf": 7288,
      "Ġinfluenza": 7289,
      "etary": 7290,
      "ĠLead": 7291,
      "Ġpartner": 7292,
      "Ġsupposed": 7293,
      "Ġsigned": 7294,
      "Ġconsumer": 7295,
      "Ġtransmit": 7296,
      "Ġhunting": 7297,
      "Ġmoderate": 7298,
      "hyd": 7299,
      "Ġweigh": 7300,
      "Ġcharacterized": 7301,
      "ĠCollection": 7302,
      "IG": 7303,
      "Res": 7304,
      "Ġbag": 7305,
      "Ġles": 7306,
      "Ġreliable": 7307,
      "Ġglac": 7308,
      "ĠPublished": 7309,
      "Ġbrowser": 7310,
      "Ġjourney": 7311,
      "ĠUtah": 7312,
      "Ġmail": 7313,
      "ĠCass": 7314,
      "Ġstores": 7315,
      "Ġextend": 7316,
      "ĠPhD": 7317,
      "ĠSecurity": 7318,
      "ĠMid": 7319,
      "Ġped": 7320,
      "Ġthroat": 7321,
      "list": 7322,
      "Ġrecognition": 7323,
      "Ġintellect": 7324,
      "igenous": 7325,
      "ĠSoviet": 7326,
      "ĠPur": 7327,
      "irus": 7328,
      "TP": 7329,
      "Ġexpansion": 7330,
      "Ġsoy": 7331,
      "ĠLos": 7332,
      "ivestock": 7333,
      "fts": 7334,
      "Ġlie": 7335,
      "dis": 7336,
      "then": 7337,
      "Ġfavorite": 7338,
      "Ġsensors": 7339,
      "ĠSpecies": 7340,
      "oded": 7341,
      "Ġexception": 7342,
      "Ġweapons": 7343,
      "Ġmaybe": 7344,
      "SF": 7345,
      "Ġguarant": 7346,
      "Ġvictims": 7347,
      "Ġreplic": 7348,
      "Ġdates": 7349,
      "Ġsurprising": 7350,
      "55": 7351,
      "Ġsector": 7352,
      "lo": 7353,
      "Ġlens": 7354,
      "ĠWorks": 7355,
      "ĠDescription": 7356,
      "Ġscript": 7357,
      "ĠRoad": 7358,
      "Ġdepart": 7359,
      "Ġcommunications": 7360,
      "Ġjustice": 7361,
      "Ġdestruction": 7362,
      "Ġinterpre": 7363,
      "Ġrenewable": 7364,
      "run": 7365,
      "Ġinsurance": 7366,
      "Ġgast": 7367,
      "Ġfounded": 7368,
      "Ġinvestment": 7369,
      "Ġpy": 7370,
      "Ġtransf": 7371,
      "icious": 7372,
      "apor": 7373,
      "dule": 7374,
      "Ġ1950": 7375,
      "ĠTO": 7376,
      "thal": 7377,
      "Ġdesigns": 7378,
      "Ġfalls": 7379,
      "Ġmarried": 7380,
      "Ġarrange": 7381,
      "Ġvariation": 7382,
      "Ġirrig": 7383,
      "ĠIdent": 7384,
      "Com": 7385,
      "ĠEmer": 7386,
      "while": 7387,
      "Ġwhatever": 7388,
      "Ġdys": 7389,
      "lastname": 7390,
      "ĠArchives": 7391,
      "Ġecosystems": 7392,
      "Ġstatements": 7393,
      "Ġinvestigate": 7394,
      "rine": 7395,
      "ĠPDF": 7396,
      "Ġaudio": 7397,
      "ĠMa": 7398,
      "Ġtip": 7399,
      "Ġfeelings": 7400,
      "ita": 7401,
      "Ġproof": 7402,
      "Ġdiarr": 7403,
      "Ġwindows": 7404,
      "cule": 7405,
      "ĠPosted": 7406,
      "Ġsmok": 7407,
      "ĠPhysics": 7408,
      "Ġfatal": 7409,
      "ĠCatholic": 7410,
      "Ġinvasive": 7411,
      "Ġafford": 7412,
      "nce": 7413,
      "gon": 7414,
      "Ġdream": 7415,
      "bar": 7416,
      "Ġfuels": 7417,
      "ĠMot": 7418,
      "Ġ(\"": 7419,
      "itory": 7420,
      "ĠPrint": 7421,
      "anc": 7422,
      "Ġsensor": 7423,
      "ometer": 7424,
      "ĠPlace": 7425,
      "Ġplanted": 7426,
      "Ġshif": 7427,
      "ĠItaly": 7428,
      "Ġobserve": 7429,
      "iments": 7430,
      "Ġasking": 7431,
      "Ġabstract": 7432,
      "Ġearliest": 7433,
      "Ġspending": 7434,
      "Ġforming": 7435,
      "Ġexciting": 7436,
      "ĠCT": 7437,
      "Ġplenty": 7438,
      "ĠRh": 7439,
      "Ġvideos": 7440,
      "Ġconj": 7441,
      "Ġclient": 7442,
      "iler": 7443,
      "Ġimplemented": 7444,
      "owa": 7445,
      "ontal": 7446,
      "Sh": 7447,
      "Ġshock": 7448,
      "ĠResource": 7449,
      "Ġcrime": 7450,
      "Ġtorn": 7451,
      "Ġisolated": 7452,
      "Ġsplit": 7453,
      "Ġshop": 7454,
      "Ġemit": 7455,
      "Ġagreement": 7456,
      "OC": 7457,
      "Ġpairs": 7458,
      "Ġthoughts": 7459,
      "Ġtheories": 7460,
      "Ġcalling": 7461,
      "Ġembry": 7462,
      "Ġnice": 7463,
      "Ġagreed": 7464,
      "berry": 7465,
      "Ġpositions": 7466,
      "Ġfinished": 7467,
      "Ġguess": 7468,
      "Ġathlet": 7469,
      "ceans": 7470,
      "Ġbath": 7471,
      "Ġviewed": 7472,
      "sm": 7473,
      "ferent": 7474,
      "anges": 7475,
      "Ġinternet": 7476,
      "Ġpuzz": 7477,
      "Ġburied": 7478,
      "Ġparticle": 7479,
      "Ġveloc": 7480,
      "ĠIns": 7481,
      "Ġ;": 7482,
      "ĠStan": 7483,
      "Ġteams": 7484,
      "Ġcriteria": 7485,
      "Ġhoney": 7486,
      "eli": 7487,
      "ano": 7488,
      "Ġencouraged": 7489,
      "ounter": 7490,
      "ĠIslam": 7491,
      "ĠComputer": 7492,
      "medi": 7493,
      "ĠGree": 7494,
      "Ġmarks": 7495,
      "Ġconv": 7496,
      "Ġprotective": 7497,
      "ĠConnect": 7498,
      "racy": 7499,
      "agnetic": 7500,
      "Ġcomputing": 7501,
      "including": 7502,
      "Ġdramatic": 7503,
      "Ġsodium": 7504,
      "ĠAvoid": 7505,
      "04": 7506,
      "Ġcontaminated": 7507,
      "uits": 7508,
      "ivered": 7509,
      "ĠInvest": 7510,
      "Ġrose": 7511,
      "erty": 7512,
      "Ġaddresses": 7513,
      "Ġgod": 7514,
      "89": 7515,
      "Ġsatellites": 7516,
      "BM": 7517,
      "PR": 7518,
      "Ġsharing": 7519,
      "Ġbatteries": 7520,
      "Ġcreative": 7521,
      "ĠYear": 7522,
      "ĠSaturn": 7523,
      "Ġrh": 7524,
      "Ġfilter": 7525,
      "Ġauthorities": 7526,
      "Ġpassage": 7527,
      "ĠArea": 7528,
      "Ġcollections": 7529,
      "ĠSpring": 7530,
      "ĠContin": 7531,
      "position": 7532,
      "nings": 7533,
      "Ġboy": 7534,
      "etime": 7535,
      "ĠLib": 7536,
      "ĠSimilar": 7537,
      "Ġassume": 7538,
      "Ġrecover": 7539,
      "Ġreef": 7540,
      "Ġcommission": 7541,
      "Ġimpl": 7542,
      "ĠKids": 7543,
      "Ġreduces": 7544,
      "Ġinvestigation": 7545,
      "Ġcure": 7546,
      "ĠCam": 7547,
      "Ġtea": 7548,
      "Ġoptical": 7549,
      "la": 7550,
      "Ġthreatened": 7551,
      "Ġquantum": 7552,
      "Ġpou": 7553,
      "print": 7554,
      "Ġstorms": 7555,
      "idering": 7556,
      "erly": 7557,
      "ĠBC": 7558,
      "from": 7559,
      "rav": 7560,
      "Ġobjective": 7561,
      "Ġowner": 7562,
      "Ġdebris": 7563,
      "urt": 7564,
      "Ġsole": 7565,
      "ĠCard": 7566,
      "Ġleadership": 7567,
      "Ġperm": 7568,
      "ĠTenn": 7569,
      "Ġindeed": 7570,
      "OM": 7571,
      "Ġsilver": 7572,
      "Ġparticipation": 7573,
      "reland": 7574,
      "ivities": 7575,
      "Ġdeficiency": 7576,
      "Ġcorrectly": 7577,
      "outheast": 7578,
      "Ġcounties": 7579,
      "Ġelected": 7580,
      "Ġfurn": 7581,
      "Ġarts": 7582,
      "rous": 7583,
      "ials": 7584,
      "Ġsuggestions": 7585,
      "ingly": 7586,
      "icular": 7587,
      "venue": 7588,
      "ospitals": 7589,
      "Ġvocabulary": 7590,
      "icate": 7591,
      "Ġpron": 7592,
      "Ġswit": 7593,
      "Ġfo": 7594,
      "xts": 7595,
      "ether": 7596,
      "ĠText": 7597,
      "ĠVer": 7598,
      "ĠZeal": 7599,
      "Ġessentially": 7600,
      "aming": 7601,
      "Ġpointed": 7602,
      "enger": 7603,
      "Ġshore": 7604,
      "igare": 7605,
      "sor": 7606,
      "09": 7607,
      "idity": 7608,
      "ĠGrand": 7609,
      "HS": 7610,
      "Ġlarv": 7611,
      "rh": 7612,
      "Ġvertical": 7613,
      "ĠWall": 7614,
      "ĠLook": 7615,
      "Ġforth": 7616,
      "Ġaband": 7617,
      "Ġworry": 7618,
      "Ġresistant": 7619,
      "text": 7620,
      "Ġincidence": 7621,
      "Ġskill": 7622,
      "Ġcort": 7623,
      "Ġoste": 7624,
      "Ġtruly": 7625,
      "Ġserves": 7626,
      "Ġstead": 7627,
      "08": 7628,
      "green": 7629,
      "Ġerosion": 7630,
      "uled": 7631,
      "Ġalle": 7632,
      "Ġeliminate": 7633,
      "Ġchair": 7634,
      "ĠLee": 7635,
      "Ġreject": 7636,
      "ĠNever": 7637,
      "Ġstronger": 7638,
      "ĠReading": 7639,
      "ĠNavy": 7640,
      "rooms": 7641,
      "Ġmissions": 7642,
      "Ġrelax": 7643,
      "Ġrelief": 7644,
      "Ġcharged": 7645,
      "Ġranging": 7646,
      "ulating": 7647,
      "ĠDiscuss": 7648,
      "ĠPhoto": 7649,
      "ĠMarine": 7650,
      "ĠSunday": 7651,
      "ĠIce": 7652,
      "ĠIreland": 7653,
      "Ġfaculty": 7654,
      "Ġcounsel": 7655,
      "Ġwriter": 7656,
      "Ġinstitution": 7657,
      "Ġsupplements": 7658,
      "etically": 7659,
      "imensional": 7660,
      "Ġwing": 7661,
      "atal": 7662,
      "Ġlanding": 7663,
      "eath": 7664,
      "oids": 7665,
      "ĠViet": 7666,
      "chnology": 7667,
      "ĠZealand": 7668,
      "Ġneighborhood": 7669,
      "bour": 7670,
      "Ġcreatures": 7671,
      "ohyd": 7672,
      "02": 7673,
      "oto": 7674,
      "Ġash": 7675,
      "Ġmanager": 7676,
      "pled": 7677,
      "ĠStill": 7678,
      "ĠShow": 7679,
      "Ġtargets": 7680,
      "eless": 7681,
      "Ġhepat": 7682,
      "Ġbehaviour": 7683,
      "Ġdecor": 7684,
      "eenth": 7685,
      "ĠLittle": 7686,
      "Ġ1992": 7687,
      "Ġhus": 7688,
      "Ġtrends": 7689,
      "Ġproportion": 7690,
      "Ġswelling": 7691,
      "Ġastronomers": 7692,
      "ĠNE": 7693,
      "Ġdelivered": 7694,
      "ima": 7695,
      "Ġtowns": 7696,
      "Ġbears": 7697,
      "otal": 7698,
      "Ġlowest": 7699,
      "ĠCentre": 7700,
      "!\"": 7701,
      "Ġdriver": 7702,
      "Ġrely": 7703,
      "03": 7704,
      "amins": 7705,
      "Ġeveryday": 7706,
      "Ġintensity": 7707,
      "ĠDictionary": 7708,
      "ĠDev": 7709,
      "Ġrocket": 7710,
      "Ġconvert": 7711,
      "CN": 7712,
      "Ġmetabol": 7713,
      "Ġpilot": 7714,
      "Ġconven": 7715,
      "Ġmountains": 7716,
      "ĠBus": 7717,
      "Ġgrains": 7718,
      "redit": 7719,
      "ourage": 7720,
      "Ġfarming": 7721,
      "Ġacquired": 7722,
      "Ġwings": 7723,
      "ifer": 7724,
      "Ġscat": 7725,
      "ĠGar": 7726,
      "esis": 7727,
      "Ġshoot": 7728,
      "Ġpreserve": 7729,
      "Ġdoubt": 7730,
      "raining": 7731,
      "Ġsciences": 7732,
      "Ġcontents": 7733,
      "ĠAccessed": 7734,
      "Ġintelligence": 7735,
      "Ġsubsequent": 7736,
      "Ġattempts": 7737,
      "Ġpainting": 7738,
      "Ġceremon": 7739,
      "Ġsalmon": 7740,
      "Ġreci": 7741,
      "Ġbrings": 7742,
      "Ġdesired": 7743,
      "06": 7744,
      "Ġmold": 7745,
      "ĠDif": 7746,
      "lymp": 7747,
      "85": 7748,
      "Ġworst": 7749,
      "Ġ55": 7750,
      "ĠBlue": 7751,
      "Ġemployed": 7752,
      "Ġastronaut": 7753,
      "irth": 7754,
      "mentation": 7755,
      "Ġwhereas": 7756,
      "ĠMean": 7757,
      "Ġaffecting": 7758,
      "ĠHTML": 7759,
      "po": 7760,
      "Ġdietary": 7761,
      "Ġlatter": 7762,
      "Ġdistant": 7763,
      "hent": 7764,
      "Ġemployment": 7765,
      "Ġexcessive": 7766,
      "Ġconcluded": 7767,
      "zyme": 7768,
      "Ġphenomenon": 7769,
      "Ġheating": 7770,
      "Ġterritory": 7771,
      "Ġcooling": 7772,
      "rical": 7773,
      "resent": 7774,
      "ĠEliz": 7775,
      "ĠCir": 7776,
      "Ġdetermining": 7777,
      "Ġwatching": 7778,
      "Ġanalys": 7779,
      "power": 7780,
      "icit": 7781,
      "Ġanalyzed": 7782,
      "Ġparameters": 7783,
      "Ġion": 7784,
      "Ġshed": 7785,
      "Ġalter": 7786,
      "Ġuncertain": 7787,
      "Ġmaintaining": 7788,
      "Ġboat": 7789,
      "Ġbond": 7790,
      "Ġsizes": 7791,
      "Ġdoses": 7792,
      "Ġgradually": 7793,
      "itely": 7794,
      "Ġincl": 7795,
      "ĠAndrew": 7796,
      "ĠLiter": 7797,
      "Ġdental": 7798,
      "ocket": 7799,
      "Ġfarms": 7800,
      "Ġvolunteers": 7801,
      "Ġmature": 7802,
      "brid": 7803,
      "Ġbomb": 7804,
      "Ġpackage": 7805,
      "ĠMcC": 7806,
      "ĠBank": 7807,
      "illa": 7808,
      "Ġstopped": 7809,
      "asm": 7810,
      "Ġsport": 7811,
      "Ġobservation": 7812,
      "Ġcircumstances": 7813,
      "43": 7814,
      "sun": 7815,
      "Ġengage": 7816,
      "ĠHor": 7817,
      "Ġdevelops": 7818,
      "Ġneedle": 7819,
      "page": 7820,
      "Ġsubsc": 7821,
      "Ġille": 7822,
      "ĠFace": 7823,
      "Ġ33": 7824,
      "Ġfacing": 7825,
      "ashes": 7826,
      "Ġconserv": 7827,
      "Ġwrites": 7828,
      "Ġprobability": 7829,
      "So": 7830,
      "Ġpanc": 7831,
      "42": 7832,
      "Ġaudience": 7833,
      "mble": 7834,
      "Ġexplo": 7835,
      "velength": 7836,
      "Ġtab": 7837,
      "imensions": 7838,
      "Ġprecip": 7839,
      "ĠAnalysis": 7840,
      "Ġlinear": 7841,
      "cons": 7842,
      "Ġpediatric": 7843,
      "Ġreserved": 7844,
      "ĠSection": 7845,
      "ube": 7846,
      "igue": 7847,
      "Ġaged": 7848,
      "Ġdisplayed": 7849,
      "ĠPolicy": 7850,
      "eries": 7851,
      "Ġoldest": 7852,
      "forcement": 7853,
      "Ġscore": 7854,
      "Ġelection": 7855,
      "Ġguidance": 7856,
      "ython": 7857,
      "Ġobl": 7858,
      "Ġdependent": 7859,
      "ĠPediatric": 7860,
      "Ġmg": 7861,
      "abeth": 7862,
      "Ġprostate": 7863,
      "Ġdeclared": 7864,
      "Ġhero": 7865,
      "Ġdiagnostic": 7866,
      "cyclopedia": 7867,
      "Ġcontributed": 7868,
      "Ġpale": 7869,
      "Ġspaces": 7870,
      "Ġundert": 7871,
      "ĠTool": 7872,
      "ĠCross": 7873,
      "Ġstreet": 7874,
      "ĠJac": 7875,
      "Ġdynamic": 7876,
      "ĠObama": 7877,
      "Ġscores": 7878,
      "uted": 7879,
      "Ġcalculate": 7880,
      "Ġvariations": 7881,
      "ographical": 7882,
      "rize": 7883,
      "Ġpsychology": 7884,
      "ĠStudent": 7885,
      "Ġdies": 7886,
      "Ġfeedback": 7887,
      "Ġoutl": 7888,
      "health": 7889,
      "ĠNutrition": 7890,
      "Ġmixture": 7891,
      "ĠTeachers": 7892,
      "MA": 7893,
      "Ġwitness": 7894,
      "Ġreaching": 7895,
      "Ġthanks": 7896,
      "79": 7897,
      "rint": 7898,
      "ĠName": 7899,
      "Ġdefense": 7900,
      "ĠItalian": 7901,
      "ĠWithout": 7902,
      "Ġfav": 7903,
      "Ġoutcome": 7904,
      "ĠIowa": 7905,
      "Ġobese": 7906,
      "Ġecological": 7907,
      "rimination": 7908,
      "ĠProble": 7909,
      "Ġprotecting": 7910,
      "Ġrays": 7911,
      "Ġseparated": 7912,
      "rape": 7913,
      "Ġunderground": 7914,
      "Ġcolonies": 7915,
      "ĠLy": 7916,
      "Ġresid": 7917,
      "Ġpassword": 7918,
      "Ġheavily": 7919,
      "Sp": 7920,
      "iological": 7921,
      "Ġpesticides": 7922,
      "Ġmercury": 7923,
      "Ġreporting": 7924,
      "Ġlock": 7925,
      "Ġ1930": 7926,
      "Ġpel": 7927,
      "Ġflour": 7928,
      "Ġmagnitude": 7929,
      "ailed": 7930,
      "Ġcombat": 7931,
      "Ġcardiovascular": 7932,
      "Ġepis": 7933,
      "ĠNear": 7934,
      "ĠTri": 7935,
      "Ġcaps": 7936,
      "ĠVe": 7937,
      "liam": 7938,
      "ĠPas": 7939,
      "Ġagent": 7940,
      "Ġlaid": 7941,
      "ĠMountain": 7942,
      "lete": 7943,
      "ols": 7944,
      "ĠOlymp": 7945,
      "Ġenorm": 7946,
      "eras": 7947,
      "iat": 7948,
      "Ġid": 7949,
      "ude": 7950,
      "Ġwilling": 7951,
      "ĠUnlike": 7952,
      "Ġextension": 7953,
      "Ġsuffered": 7954,
      "ĠFarm": 7955,
      "icals": 7956,
      "Ġslaves": 7957,
      "Ġfalling": 7958,
      "Ġ1993": 7959,
      "ĠFigure": 7960,
      "Ġhandling": 7961,
      "ading": 7962,
      "ĠSanta": 7963,
      "Ġbehavioral": 7964,
      "psy": 7965,
      "ĠCA": 7966,
      "heastern": 7967,
      "ensed": 7968,
      "Ġhopes": 7969,
      "Ġempty": 7970,
      "Ġbeneath": 7971,
      "esh": 7972,
      "ĠSar": 7973,
      "ctu": 7974,
      "Ġcong": 7975,
      "Ġneurons": 7976,
      "effect": 7977,
      "Ġdesignated": 7978,
      "Ġdropped": 7979,
      "Ġadvert": 7980,
      "Ġlivestock": 7981,
      "Ġcooking": 7982,
      "atories": 7983,
      "Ġcluster": 7984,
      "Ġimper": 7985,
      "hire": 7986,
      "Ġplain": 7987,
      "Ġchap": 7988,
      "Ġeducators": 7989,
      "enter": 7990,
      "ĠUnit": 7991,
      "Is": 7992,
      "operation": 7993,
      "Ġvs": 7994,
      "Ġseeking": 7995,
      "Ġexpanded": 7996,
      "Ġresist": 7997,
      "Ġillnesses": 7998,
      "Ġsignificance": 7999,
      "].": 8000,
      "ĠSup": 8001,
      "oric": 8002,
      "ĠEth": 8003,
      "Ġindustries": 8004,
      "Ġfung": 8005,
      "Ġhappy": 8006,
      "Ġsteam": 8007,
      "inch": 8008,
      "Ġmapping": 8009,
      "Ġsubstit": 8010,
      "Ġavailability": 8011,
      "haust": 8012,
      "Ġregistered": 8013,
      "Ġdealing": 8014,
      "Ġasteroid": 8015,
      "Ġalgorithm": 8016,
      "ĠLevel": 8017,
      "Ġmm": 8018,
      "ĠBattle": 8019,
      "ĠOffic": 8020,
      "ptom": 8021,
      "abama": 8022,
      "ĠDC": 8023,
      "ĠRemember": 8024,
      "erally": 8025,
      "Ġbits": 8026,
      "Ġbibl": 8027,
      "Ġviral": 8028,
      "rix": 8029,
      "Ġadapted": 8030,
      "requ": 8031,
      "omal": 8032,
      "Ġcopies": 8033,
      "Ġlip": 8034,
      "EG": 8035,
      "Ġgat": 8036,
      "ĠHubble": 8037,
      "Ġannually": 8038,
      "Ġcoffee": 8039,
      "07": 8040,
      "Ġhappening": 8041,
      "Ġdefects": 8042,
      "Ġpine": 8043,
      "Ġartist": 8044,
      "ĠCr": 8045,
      "ruit": 8046,
      "Ġmutations": 8047,
      "41": 8048,
      "Ġbelieves": 8049,
      "ackson": 8050,
      "Ġbladder": 8051,
      "Ġproven": 8052,
      "Ġlosses": 8053,
      "olph": 8054,
      "ĠEp": 8055,
      "Ġsheets": 8056,
      "ĠStatistics": 8057,
      "Ġdrivers": 8058,
      "Ġrailroad": 8059,
      "Ġdebt": 8060,
      "Ġmoral": 8061,
      "def": 8062,
      "Ġspan": 8063,
      "Ġwireless": 8064,
      "iber": 8065,
      "Ġsubt": 8066,
      "Ġloop": 8067,
      "Ġevolutionary": 8068,
      "Ġtrace": 8069,
      "UR": 8070,
      "Ġpup": 8071,
      "ymes": 8072,
      "ributes": 8073,
      "endar": 8074,
      "OP": 8075,
      "Ġkilling": 8076,
      "Ġsafely": 8077,
      "Ġbringing": 8078,
      "Ġdirected": 8079,
      "Ġexpanding": 8080,
      ",'": 8081,
      "Ġfirstname": 8082,
      "Ġshorter": 8083,
      "ĠImp": 8084,
      "++": 8085,
      "amine": 8086,
      "Ġacknow": 8087,
      "Ġcraft": 8088,
      "Ġgrades": 8089,
      "ĠSenate": 8090,
      "Ġstrict": 8091,
      "ĠWil": 8092,
      "Ġwat": 8093,
      "amps": 8094,
      "ĠIndex": 8095,
      "Ġcommittee": 8096,
      "ĠAgricultural": 8097,
      "Ġsucceed": 8098,
      "Ġloose": 8099,
      "Ġattach": 8100,
      "apped": 8101,
      "Ġrealize": 8102,
      "Ġhaven": 8103,
      "ĠAdditional": 8104,
      "Ġharder": 8105,
      "ĠAngeles": 8106,
      "Ġslavery": 8107,
      "Ġcontamination": 8108,
      "ĠInclud": 8109,
      "Ġforget": 8110,
      "ĠDiabetes": 8111,
      "door": 8112,
      "play": 8113,
      "ilation": 8114,
      "Ġremind": 8115,
      "Ġrefuge": 8116,
      "Ġreverse": 8117,
      "zil": 8118,
      "ĠFlu": 8119,
      "Ġdistricts": 8120,
      "Ġbeam": 8121,
      "Ġrover": 8122,
      "ĠSC": 8123,
      "ĠGall": 8124,
      "Ġemphasis": 8125,
      "Ġflexible": 8126,
      "Ġ>>": 8127,
      "ĠCensus": 8128,
      "Ġtransp": 8129,
      "Ġsuspect": 8130,
      "ĠDocu": 8131,
      "Ġpolitics": 8132,
      "oline": 8133,
      "iosity": 8134,
      "Ġprominent": 8135,
      "Ġthyroid": 8136,
      "Ġfellow": 8137,
      "ĠDam": 8138,
      "Ġstones": 8139,
      "Ġoffering": 8140,
      "ĠNeu": 8141,
      "Ġpneum": 8142,
      "Ġpredicted": 8143,
      "ĠEconomic": 8144,
      "Pl": 8145,
      "Ġtor": 8146,
      "nut": 8147,
      "Ġ37": 8148,
      "liament": 8149,
      "umer": 8150,
      "Ġye": 8151,
      "Ġrelation": 8152,
      "iox": 8153,
      "Ġseemed": 8154,
      "Ġsubstantial": 8155,
      "rings": 8156,
      "ĠCode": 8157,
      "Ġrespectively": 8158,
      "profit": 8159,
      "Ġproved": 8160,
      "ĠTechnical": 8161,
      "Ġoverweight": 8162,
      "Ġtot": 8163,
      "Ġdiarrhea": 8164,
      "ders": 8165,
      "asty": 8166,
      "author": 8167,
      "Ġmolecule": 8168,
      "66": 8169,
      "And": 8170,
      "ady": 8171,
      "Ġstructural": 8172,
      "ĠPhysical": 8173,
      "Ġsales": 8174,
      "UL": 8175,
      "Ġconverted": 8176,
      "ĠBuilding": 8177,
      "Ġmanufacturers": 8178,
      "elect": 8179,
      "Ġshaped": 8180,
      "Ġaccompan": 8181,
      "reated": 8182,
      "Ġschedule": 8183,
      "Ġuncom": 8184,
      "Ġhepatitis": 8185,
      "Ġmovie": 8186,
      "Ġoverview": 8187,
      "ĠSpain": 8188,
      "Ġowned": 8189,
      "ĠPatients": 8190,
      "Ġnodes": 8191
    },
    "merges": [
      "Ġ t",
      "Ġ a",
      "h e",
      "i n",
      "r e",
      "o n",
      "Ġt he",
      "e r",
      "Ġ s",
      "a t",
      "Ġ o",
      "e n",
      "Ġ c",
      "e s",
      "Ġ w",
      "i s",
      "n d",
      "o r",
      "i t",
      "Ġ p",
      "a l",
      "Ġ f",
      "Ġ b",
      "e d",
      "Ġo f",
      "a n",
      "in g",
      "a r",
      "Ġ in",
      "o u",
      "Ġ m",
      "i c",
      "Ġa nd",
      "Ġt o",
      "Ġ d",
      "i on",
      "r o",
      "l e",
      "a s",
      "en t",
      "Ġ h",
      "Ġt h",
      "c t",
      "i l",
      "Ġ T",
      "Ġ re",
      "Ġ e",
      "Ġ l",
      "v e",
      "o m",
      "Ġ n",
      "s t",
      "e t",
      "l y",
      "Ġ is",
      "o l",
      "s e",
      "Ġ A",
      "Ġ g",
      "i d",
      "at ion",
      "Ġb e",
      "Ġ S",
      "r a",
      "i m",
      "u t",
      "o w",
      "c h",
      "c e",
      "o t",
      "u r",
      "Ġ C",
      "Ġf or",
      "i g",
      "Ġ u",
      "Ġ I",
      "Ġ on",
      "Ġs t",
      "Ġth at",
      "ĠT he",
      "v er",
      "i r",
      "Ġ y",
      "a y",
      "a m",
      "u l",
      "e l",
      "Ġp ro",
      "Ġa re",
      "he r",
      "it h",
      "Ġ M",
      "Ġa s",
      "a d",
      "Ġa n",
      "Ġo r",
      "Ġ P",
      "Ġc on",
      "Ġw ith",
      "i f",
      "t er",
      "o d",
      "Ġ 1",
      "Ġy ou",
      "g e",
      "Ġ it",
      "Ġw h",
      "t h",
      "Ġa l",
      "m ent",
      "o p",
      "at e",
      "Ġ (",
      "Ġ B",
      "t s",
      "Ġ -",
      "Ġ W",
      "il l",
      "er s",
      "o re",
      "a b",
      "i es",
      "e ct",
      "Ġd e",
      "Ġ D",
      "Ġ H",
      "Ġe x",
      "u m",
      "Ġ he",
      "O S",
      "ro m",
      "Ġc om",
      "u s",
      "Ġh a",
      "' s",
      "es s",
      "o s",
      "a c",
      "Ġa t",
      "u re",
      "es t",
      "Ġb y",
      "u d",
      "Ġ E",
      "Ġ v",
      "Ġw e",
      "is t",
      "k e",
      "Ġ F",
      "Ġ R",
      "it y",
      "i ve",
      "l d",
      "Ġ N",
      "q u",
      "e m",
      "ig h",
      "Ġf rom",
      "Ġs u",
      "Ġc an",
      "Ġ \"",
      "p p",
      "i v",
      "Ġn e",
      "a in",
      "Ġc h",
      "Ġ r",
      "n t",
      "Ġs e",
      "a nd",
      "c i",
      "Ġ 2",
      "re s",
      "Ġ L",
      "Ġw as",
      "u n",
      "ic al",
      "Ġs p",
      "Ġha ve",
      "an t",
      "Ġ G",
      "r i",
      "o g",
      "or t",
      "Ġ le",
      "ar t",
      "Ġs h",
      "0 0",
      "Ġn ot",
      "al l",
      "Ġth is",
      "Ġ O",
      "Ġa b",
      "Ġ U",
      "r ou",
      "in e",
      "Ġ en",
      "ĠI n",
      "ou r",
      "re d",
      "e ar",
      "t her",
      "ion s",
      "Ġu s",
      "a p",
      "a g",
      "at ed",
      "ou ld",
      "Ġp l",
      "o st",
      "d u",
      "o c",
      "el l",
      "om e",
      "ou t",
      "igh t",
      "ic h",
      "g h",
      "id e",
      "a ge",
      "ar d",
      "Ġw or",
      "Ġ im",
      "a ct",
      "p l",
      "f f",
      "as t",
      "ĠT h",
      "Ġin t",
      "Ġ <",
      "Ġw ill",
      "p t",
      "Ġ J",
      "s o",
      "or m",
      "Ġd is",
      "an s",
      "al ly",
      "o od",
      "E OS",
      "S OS",
      "Ġin c",
      "Ġw he",
      "r u",
      "p er",
      "Ġ k",
      "a k",
      "e w",
      "Ġcon t",
      "Ġm ore",
      "Ġthe ir",
      "ve l",
      "Ġa d",
      "i z",
      "at er",
      "Ġcom p",
      "i b",
      "c c",
      "Ġwh ich",
      "Ġthe y",
      "Ġyou r",
      "ar y",
      "Ġre s",
      "u st",
      "ou s",
      "on g",
      "Ġh as",
      "ation s",
      "i a",
      "Ġal l",
      "re n",
      "en d",
      "il d",
      "Ġs o",
      "Ġc l",
      "Ġd o",
      "k s",
      "e c",
      "ĠS t",
      "as e",
      "ent s",
      "Ġo ther",
      "in d",
      "Ġst ud",
      "Ġp er",
      "i al",
      "i p",
      "ab le",
      "Ġt e",
      "r y",
      "a ch",
      "Ġb ut",
      "e p",
      "Ġs a",
      "Ġin f",
      "as s",
      "en ce",
      "ul t",
      "Ġm an",
      "a ce",
      "Ġon e",
      "o o",
      "Ġwe re",
      "a ke",
      "Ġab out",
      "u b",
      "re at",
      "Ġm e",
      "a u",
      "ig n",
      "ct ion",
      "Ġal so",
      "Ġm ay",
      "ic e",
      "b er",
      "or y",
      "Ġ1 9",
      "Ġo ut",
      "it e",
      "ou nd",
      "Ġd i",
      "or d",
      "a re",
      "Ġa pp",
      "Ġs y",
      "Ġ j",
      "Ġim p",
      "res s",
      "it ion",
      "ĠTh is",
      "ac k",
      "or s",
      "ol og",
      "on e",
      "en s",
      "an ce",
      "a v",
      "o se",
      "f e",
      "am e",
      "l ow",
      "m er",
      "Ġa r",
      "Ġt im",
      "Ġu n",
      "Ġth an",
      "Ġy ear",
      "c es",
      "ver y",
      "Ġe v",
      "re e",
      "ay s",
      "r ic",
      "an g",
      "Ġp re",
      "ou nt",
      "i ke",
      "u e",
      "is h",
      "Ġp e",
      "Ġwh o",
      "p h",
      "ver s",
      "Ġ K",
      "a il",
      "ow n",
      "i le",
      "at es",
      "Ġp art",
      "Ġu p",
      "ĠI t",
      ". <",
      "Ġc ol",
      "l ud",
      "Ġb l",
      "Ġ qu",
      "er v",
      "Ġcom m",
      "Ġs ome",
      "Ġbe c",
      "Ġre c",
      "Ġ ra",
      "Ġ 3",
      "Ġu se",
      "Ġ ro",
      "Ġ V",
      "p e",
      "Ġint o",
      "Ġne w",
      "m s",
      "Ġbe en",
      "ĠC h",
      "op le",
      "Ġwhe n",
      "j ect",
      "Ġ Y",
      "ĠU n",
      "Ġthe m",
      "y s",
      "ing s",
      "nd er",
      "au se",
      "Ġit s",
      "t e",
      "l ic",
      "on s",
      "Ġh ow",
      "ro w",
      "l l",
      "Ġk n",
      "Ġa g",
      "Ġo ver",
      "Ġsa id",
      "ou gh",
      "rou gh",
      "Ġinc lud",
      "le ct",
      "Ġt w",
      "k ing",
      "ter n",
      "st em",
      "ir st",
      "l es",
      "i e",
      "Ġt ra",
      "al th",
      "vel op",
      "Ġg en",
      "re nt",
      "Ġthe se",
      "Ġtim e",
      "al s",
      "i an",
      "ation al",
      "p le",
      "Ġd if",
      "Ġpe ople",
      ", \"",
      "Ġthe re",
      "o ve",
      "if ic",
      "on d",
      "Ġg o",
      "Ġh is",
      "r it",
      ") .",
      "Ġus ed",
      "ment s",
      "Ġm ost",
      "Ġl ike",
      "Ġa ct",
      "Ġ if",
      "Ġb et",
      "w e",
      "he d",
      "Ġre se",
      ". \"",
      "Ġa cc",
      "Ġch ild",
      "ff ect",
      "Ġd es",
      "i re",
      "Ġu nder",
      "o ol",
      "Ġw ould",
      "Ġre p",
      "' t",
      "is s",
      "Ġrese ar",
      "Ġsu ch",
      "Ġp h",
      "Ġ2 0",
      "ĠH e",
      "Ġde velop",
      "Ġne ed",
      "Ġpro v",
      "Ġf irst",
      "Ġs c",
      "Ġhe l",
      "ic s",
      "Ġcon s",
      "it ies",
      "Ġan y",
      "b le",
      "Ġtw o",
      "n ing",
      "rou nd",
      "Ġs ur",
      "Ġpro du",
      "ra m",
      "Ġh ad",
      "Ġhel p",
      "at ing",
      "c ed",
      "o b",
      ". .",
      "oo k",
      "ul ar",
      "Ġf l",
      "Ġo b",
      "ĠW h",
      "Ġth rough",
      "Ġf e",
      "Ġre l",
      "Ġsy stem",
      "in t",
      "at ive",
      "orm ation",
      "Ġt r",
      "u al",
      "Ġw ater",
      "Ġon ly",
      "o v",
      "c ess",
      "Ġa m",
      "Ġ2 00",
      "Ġman y",
      "f ter",
      "ur ing",
      "u c",
      "Ġad d",
      "os s",
      "Ġp r",
      "Ġwh at",
      "i ous",
      "Ġwor k",
      "Ġp o",
      "at h",
      "Ġof f",
      "Ġs m",
      "ar k",
      "Ġyear s",
      "Ġex p",
      "ri b",
      "Ġn o",
      "Ġa c",
      "is e",
      "ure s",
      "an ge",
      "ĠA s",
      "et h",
      "er m",
      "as ed",
      "Ġ 4",
      "Ġo ur",
      "Ġin d",
      "Ġre g",
      "Ġdif fe",
      "n e",
      "Ġsp ec",
      "ci al",
      "c er",
      "Ġc o",
      "ol d",
      "olog y",
      "t en",
      "ot h",
      "mer ic",
      "is ts",
      "he n",
      "ib le",
      "x t",
      "c y",
      "he s",
      "i vers",
      "Ġ 5",
      "Ġc ould",
      "Ġn um",
      "n g",
      "Ġf ound",
      "Ġde c",
      "Ġstud y",
      "Ġsh ould",
      "f ul",
      ") ,",
      "Ġinf ormation",
      "Ġpl an",
      "ĠP ro",
      "Ġe ar",
      "f t",
      "Ġre m",
      "ĠI f",
      "i ed",
      "ch n",
      "Ġh igh",
      "ow er",
      "Ġe m",
      "ĠA meric",
      "at a",
      "il ity",
      "Ġin v",
      "ch ool",
      "Ġat t",
      "Ġfor m",
      "Ġ |",
      "Ġex am",
      "r on",
      "we en",
      "Ġsu b",
      "Ġpro g",
      "Ġg et",
      "Ġp res",
      "c ent",
      "if e",
      "ic k",
      "in es",
      "Ġl ar",
      "it ed",
      "f ore",
      "Ġt y",
      "Ġhe alth",
      "l and",
      "u ally",
      "her s",
      "Ġw ell",
      "it s",
      "Ġd et",
      "er t",
      "Ġbet ween",
      "ra ct",
      "ad e",
      "Ġb u",
      "Ġm ake",
      "g an",
      "Ġc all",
      "in s",
      "Ġs ci",
      "ĠA l",
      "i ew",
      "Ġm od",
      "ĠR e",
      "Ġsu pp",
      "Ġwhe re",
      "ĠF or",
      "il y",
      "ut ion",
      "ur n",
      "Ġin ter",
      "in k",
      "u ch",
      "Ġc ar",
      "id ent",
      "w n",
      "ic t",
      "T he",
      "Ġin st",
      "Ġl ong",
      "Ġtr ans",
      "ur al",
      "ĠW e",
      "Ġm ed",
      "p s",
      "Ġg ra",
      "ĠA n",
      "er g",
      "d s",
      "Ġs im",
      "Ġp ub",
      "ag es",
      "Ġp at",
      "v ent",
      "Ġ ed",
      "Ġa fter",
      "Ġe ach",
      "Ġ20 1",
      "t ing",
      "Ġ1 8",
      "Ġthe n",
      "Ġe ffect",
      "Ġbec ause",
      "as es",
      "Ġv ar",
      "ir on",
      "c k",
      "Ġdis e",
      "Ġdiffe rent",
      "Ġl oc",
      "Ġ very",
      "Ġinc re",
      "ivers ity",
      "Ġf ind",
      "Ġse e",
      "Ġf ol",
      "Ġc ent",
      "Ġj ust",
      "g et",
      "a w",
      "e ver",
      "Ġimp ort",
      "Ġchild ren",
      "Ġdis c",
      "ical ly",
      "Ġ- -",
      "Ġgen er",
      "or n",
      "Ġkn ow",
      "u es",
      "se l",
      "Ġ ke",
      "Ġc ell",
      "Ġm on",
      "Ġs ign",
      "ĠH ow",
      "ĠC om",
      "Ġc he",
      "Ġh um",
      "Ġd ata",
      "Ġ her",
      "at ure",
      "Ġresear ch",
      "Ġex per",
      "Ġth ose",
      "Ġex t",
      "Ġ 6",
      "Ġpro ble",
      "Ġstud ents",
      "Ġp ers",
      "re ct",
      "ar s",
      "t le",
      "Ġsm all",
      "ar m",
      "ro s",
      "et y",
      "g g",
      "Ġp ol",
      "e f",
      "Ġd uring",
      "Ġc ount",
      "Ġs et",
      "ect ion",
      "ru ct",
      "Ġte chn",
      "Ġs he",
      "Ġw ay",
      "iv es",
      "ĠThe y",
      "Ġsh ow",
      "Ġus ing",
      "Ġsp e",
      "Ġpart ic",
      "i el",
      "Ġas s",
      "Ġde f",
      "e x",
      "Ġre qu",
      "Ġle vel",
      "ak ing",
      "Ġc re",
      "Ġa v",
      "iz e",
      "ĠC on",
      "ĠN ew",
      "Ġd ist",
      "Ġres p",
      "ot her",
      "v iron",
      "Ġc ur",
      "Ġpro cess",
      "Ġm uch",
      "Ġg row",
      "Ġev en",
      "Ġwor ld",
      "od y",
      "Ġfol low",
      "t ed",
      "Ġs k",
      "00 0",
      "Ġse c",
      "Ġt reat",
      "Ġre ad",
      "Ġde p",
      "Ġdo es",
      "ĠR es",
      "Ġt est",
      "al e",
      "Ġf ood",
      "ĠB ut",
      "Ġprov id",
      "ĠUn iversity",
      "Ġle ar",
      "re ad",
      "f orm",
      "Ġex pl",
      "Ġa ut",
      "Ġr is",
      "ro l",
      "Ġf am",
      "Ġg rou",
      "Ġc a",
      "ut e",
      "i o",
      "Ġs ame",
      "or k",
      "Ġb ack",
      "Ġnum ber",
      "Ġf act",
      "o y",
      "ĠY ou",
      "v ed",
      "ĠS p",
      "Ġ ent",
      "i x",
      "Ġe very",
      "Ġo cc",
      "iz ed",
      "Ġf un",
      "viron ment",
      "n ess",
      "Ġimport ant",
      "ra in",
      "Ġs chool",
      "ou n",
      "Ġ1 0",
      "l ed",
      "at her",
      "Ġbe fore",
      "ce pt",
      "Ġbe ing",
      "is hed",
      "ĠA r",
      "erg y",
      "Ġh ist",
      "Ġl ess",
      "c on",
      "Ġcomp le",
      "Ġp op",
      "Ġle ad",
      "Ġar t",
      "u nd",
      "Ġm ade",
      "ic es",
      "ĠThe re",
      "Ġst ate",
      "oc k",
      "Ġm in",
      "r an",
      "Ġen d",
      "ro p",
      "Ġcomm un",
      "Ġ '",
      "Ġg l",
      "Ġdise ase",
      "Ġp ar",
      "om en",
      "Ġst r",
      "Ġin s",
      "Ġth ree",
      "w ard",
      "a x",
      "is m",
      "g en",
      "g er",
      "Ġd own",
      "Ġb oth",
      "c om",
      "an y",
      "Ġcall ed",
      "Ġs ol",
      "Ġv al",
      "ak es",
      "Ġl ife",
      "Ġcl ass",
      "in al",
      "Ġper cent",
      "e re",
      "im ate",
      "Ġn ow",
      "i ent",
      "Ġof ten",
      "Ġbl ood",
      "d ay",
      "r al",
      "Ġcomm on",
      "Ġv is",
      "ain s",
      "Ġ 7",
      "Ġpro t",
      "ul ts",
      "i ver",
      "Ġdes ign",
      "Ġs ays",
      "Ġe lect",
      "Ġm em",
      "re en",
      "t y",
      "ĠS o",
      "Ġact iv",
      "Ġo wn",
      "in ce",
      "ĠS e",
      "Ġlar ge",
      "ver n",
      "Ġp oss",
      "ater ial",
      "ter s",
      "Ġa round",
      "st and",
      "c hers",
      "Ġ 8",
      "Ġs er",
      "Ġcon d",
      "a ir",
      "Ġinclud ing",
      "ag n",
      "o h",
      "Ġch ar",
      "Ġexam ple",
      "act er",
      "i qu",
      "ul ation",
      "Ġre f",
      "Ġd ay",
      "Ġt ake",
      "as h",
      "i er",
      "Ġg ood",
      "et s",
      "in ed",
      "om s",
      "Ġb ody",
      "Ġsci ent",
      "ĠWh at",
      "our ces",
      "ou th",
      "Ġprog ram",
      "Ġpers on",
      "Ġl and",
      "ul l",
      "Ġha nd",
      "u p",
      "ĠT o",
      "ĠI nd",
      "Ġwh ile",
      "ra ph",
      "| |",
      "t on",
      "Ġca us",
      "Ġl it",
      "Ġto o",
      "an ts",
      "it ions",
      "ĠThe se",
      "ill ion",
      "d er",
      "Ġre du",
      "ĠAmeric an",
      "ur y",
      "_ _",
      "Ġ est",
      "so ci",
      "r ing",
      "iv id",
      "Ġkn own",
      "Ġor gan",
      "ĠN ational",
      "Ġrep ort",
      "our ce",
      "ĠE x",
      "Ġm y",
      "ect ed",
      "Ġs erv",
      "Ġm ain",
      "Ġc ap",
      "Ġre t",
      "Ġare a",
      "id s",
      "ou se",
      "ĠW hen",
      "iv ing",
      "h ip",
      "Ġm aterial",
      "ĠP h",
      "Ġm et",
      "Ġinclud e",
      "Ġc are",
      "i um",
      "Ġall ow",
      "c l",
      "Ġ 9",
      "it al",
      "or th",
      "a j",
      "Ġdi rect",
      "w ay",
      "Ġqu est",
      "Ġp ower",
      "v ing",
      "iel d",
      "Ġhum an",
      "Ġd r",
      "a ve",
      "Ġe qu",
      "Ġpub lic",
      "v en",
      "ĠO n",
      "Ġspec ies",
      "Ġch ang",
      "Ġa ir",
      "ĠA d",
      "ros s",
      "Ġl ight",
      "Ġag ain",
      "Ġris k",
      "Ġb re",
      "Ġb o",
      "b ers",
      "Ġpro ject",
      "l ine",
      "Ġty p",
      "us s",
      "ĠA nd",
      "Ġc or",
      "ĠC ol",
      "Ġan im",
      "Ġ19 9",
      "ĠC ent",
      "Ġsy m",
      "Ġph ys",
      "d e",
      "m on",
      "ĠD e",
      "v es",
      "Ġm ust",
      "os ed",
      "a red",
      "a h",
      "Ġst and",
      "el s",
      "Ġme as",
      "Ġ ve",
      "Ġcont in",
      "b s",
      "ĠS ci",
      "Ġc le",
      "Ġen vironment",
      "Ġf ew",
      "ren ce",
      "Ġc our",
      "Ġo p",
      "Ġm eth",
      "ĠA t",
      "Ġocc ur",
      "Ġm at",
      "or ts",
      "st it",
      "al ity",
      "Ġav ail",
      "er al",
      "os p",
      "Ġbu ild",
      "Ġbe l",
      "ar ch",
      "ĠE ng",
      "i red",
      "Ġcan cer",
      "ord ing",
      "Ġvar i",
      "om et",
      "ion al",
      "er ing",
      ". ,",
      "Ġne ar",
      "Ġd id",
      "l ished",
      "i od",
      "Ġst art",
      "g in",
      "Ġen ergy",
      "Ġunder stand",
      "Ġcell s",
      "Ġs l",
      ".. .",
      "ĠC l",
      "iv en",
      "at or",
      "Ġst ill",
      "Ġe as",
      "Ġbe h",
      "f ess",
      "v iew",
      "Ġd on",
      "ĠUn ited",
      "Ġad v",
      "ĠI s",
      "og raph",
      "iss ion",
      "Ġm ight",
      "Ġ ident",
      "S A",
      "Ġed uc",
      "he re",
      "ĠE ar",
      "Ġapp ro",
      "Ġt em",
      "Ġres ult",
      "Ġpres ent",
      "Ġc ause",
      "ĠS h",
      "ro du",
      "Ġt re",
      "i or",
      "m an",
      "Ġch ange",
      "ĠP l",
      "Ġg u",
      "it es",
      "if ied",
      "in ation",
      "pt ion",
      "Ġp ot",
      "en g",
      "Ġresear chers",
      "il es",
      "Ġear ly",
      "Ġpl ant",
      "Ġse ver",
      "Ġcomp ut",
      "Ġw omen",
      "Ġavail able",
      "at s",
      "Ġw rit",
      "ĠT e",
      "if y",
      "Ġth ough",
      "w w",
      "i ents",
      "Ġcont rol",
      "m e",
      "Ġg reat",
      "r ation",
      "ĠM ed",
      "Ġen g",
      "Ġh y",
      "Ġis s",
      "Ġr ight",
      "Ġgo vern",
      "r ies",
      "Ġl ow",
      "Ġpl ace",
      "Ġb as",
      "Ġsupp ort",
      "Ġcur rent",
      "ff ic",
      "Ġdevelop ment",
      "Ġcon f",
      "Ġob ject",
      "Ġwith in",
      "Ġw ant",
      "t ain",
      "as on",
      "Ġim m",
      "aj or",
      "Ġp ass",
      "l ish",
      "Ġto p",
      "Ġan other",
      "Ġdes c",
      "Ġsp ace",
      "ĠSt ates",
      "Ġb ir",
      "en ces",
      "Ġmeth od",
      "Ġo per",
      "Ġo ld",
      "Ġan t",
      "Ġgrou p",
      "Ġl ast",
      "Ġra d",
      "at ural",
      "ĠE n",
      "olog ical",
      "Ġsec ond",
      "im e",
      "ard s",
      "ang u",
      "o le",
      "Ġl ook",
      "Ġ &",
      "Ġb i",
      "Ġlear n",
      "ĠC an",
      "f ace",
      "iv ed",
      "e red",
      "es ts",
      "Ġare as",
      "Ġsever al",
      "ere st",
      "Ġwe e",
      "ab or",
      "Ġpl ay",
      "ent ial",
      "Ġs ay",
      "it ive",
      "Ġimp ro",
      "Ġprov ide",
      "iz ation",
      "ot e",
      "igh ts",
      "Ġhist ory",
      "at ory",
      "Ġ $",
      "ot s",
      "u g",
      "is ion",
      "Ġtreat ment",
      "Ġprodu ct",
      "en cy",
      "Ġhe re",
      "Ġty pe",
      "Ġan al",
      "en se",
      "cc ess",
      "Ġm us",
      "t he",
      "- -",
      "Ġwith out",
      "ĠD r",
      "Ġp ract",
      "id es",
      "p r",
      "Ġe le",
      "Ġp ain",
      "Ġf ore",
      "Ġp ur",
      "Ġc al",
      "n er",
      "Ġpre vent",
      "Ġproble ms",
      "ĠB e",
      "con om",
      "Ġ Q",
      "Ġind ivid",
      "Ġh ome",
      "Ġl ist",
      "Ġm ajor",
      "Ġde v",
      "Ġpo int",
      "Ġfollow ing",
      "op e",
      "at ic",
      "Ġ1 2",
      "Ġ [",
      "h or",
      "ent ly",
      "Ġf our",
      "Ġadd ition",
      "ĠL e",
      "od e",
      "Ġa ffect",
      "c ing",
      "ĠRes ear",
      "Ġ1 5",
      "Ġr un",
      "Ġposs ible",
      "Ġ ide",
      "l ess",
      "ĠHow ever",
      "Ġmon th",
      "Ġhe ad",
      "et ic",
      "Ġ 0",
      "ic le",
      "p ar",
      "Ġf low",
      "Ġinv ol",
      "Ġre st",
      "Ġw ar",
      "o id",
      "sel f",
      "Ġh im",
      "ill s",
      "c le",
      "Ġpro per",
      "1 9",
      "ct or",
      "Ġbet ter",
      "Ġhe art",
      "Ġcon st",
      "Ġm ove",
      "Ġu nt",
      "' re",
      "in ing",
      "Ġint erest",
      "t t",
      "pl es",
      "Ġlevel s",
      "n s",
      "un e",
      "Ġfam ily",
      "i ans",
      "Ġbec ome",
      "Ġm ar",
      "Ġb en",
      "Ġke ep",
      "o x",
      "Ġh ig",
      "Ġa ge",
      "Ġor ig",
      "Ġv ir",
      "Ġm illion",
      "Ġn ame",
      "Ġper form",
      "am es",
      "ru g",
      "ĠA ll",
      "Ġs w",
      "Ġexper i",
      "ĠO r",
      "am p",
      "in a",
      "ab ility",
      "Ġp os",
      "ĠEar th",
      "Ġtim es",
      "Ġop en",
      "Ġp ress",
      "Ġsu gg",
      "Ġus ually",
      "Ġ es",
      "Ġdet erm",
      "ap er",
      "Ġres ults",
      "Ġper iod",
      "u ro",
      "Ġc ert",
      "Ġv ol",
      "Ġb est",
      "Ġv iew",
      "ĠS ome",
      "m it",
      "Ġproble m",
      "u se",
      "ra p",
      "Ġle g",
      "Ġab le",
      "pt oms",
      "2 0",
      "Ġn on",
      "er c",
      "Ġs ite",
      "il ar",
      "o ad",
      "Ġbel ie",
      "Ġs ince",
      "Ġche m",
      "ĠHe alth",
      "he m",
      "Ġpartic ular",
      "Ġcol le",
      "ent al",
      "er n",
      "Ġm en",
      "Ġl im",
      "ĠW or",
      "Ġplan ts",
      "end ed",
      "a z",
      "re t",
      "Ġas soci",
      "w ays",
      "Ġfun ction",
      "Ġre le",
      "Ġapp ear",
      "on es",
      "Ġre ce",
      "ĠSt ud",
      "Ġl angu",
      "Ġb rain",
      "a ren",
      "th ough",
      "Ġlike ly",
      "or ies",
      "id ence",
      "Ġdif f",
      "Ġb ased",
      "l u",
      "1 0",
      "ĠC al",
      "Ġst ruct",
      "Ġcont ain",
      "Ġrec ord",
      "t o",
      "Ġm ark",
      "Ġth ink",
      "end s",
      "l ing",
      "Ġam ong",
      "oo ks",
      "Ġe l",
      "Ġt ri",
      "Ġh ard",
      "m in",
      "im es",
      "p ut",
      "ĠS y",
      "orm al",
      "Ġte am",
      "Ġob s",
      "Ġc ost",
      "r id",
      "Ġt er",
[...]
